/**
  ******************************************************************************
  * @file    motor_anomalie_data_params.c
  * @author  AST Embedded Analytics Research Platform
  * @date    2025-08-23T15:13:00+0200
  * @brief   AI Tool Automatic Code Generator for Embedded NN computing
  ******************************************************************************
  * Copyright (c) 2025 STMicroelectronics.
  * All rights reserved.
  *
  * This software is licensed under terms that can be found in the LICENSE file
  * in the root directory of this software component.
  * If no LICENSE file comes with this software, it is provided AS-IS.
  ******************************************************************************
  */

#include "motor_anomalie_data_params.h"


/**  Activations Section  ****************************************************/
ai_handle g_motor_anomalie_activations_table[1 + 2] = {
  AI_HANDLE_PTR(AI_MAGIC_MARKER),
  AI_HANDLE_PTR(NULL),
  AI_HANDLE_PTR(AI_MAGIC_MARKER),
};




/**  Weights Section  ********************************************************/
AI_ALIGNED(32)
const ai_u64 s_motor_anomalie_weights_array_u64[5118] = {
  0x59c67db5e40a6126U, 0x4c2f81ee862b223aU, 0x66ef49e76f9ef52cU, 0xc71d58ee2cc22571U,
  0xd0f0e04d0c20ad15U, 0x5e81f3e062a04171U, 0x98730013ca0038fdU, 0x6dea9b50cd16ef67U,
  0xa4c3c7946381eb0bU, 0x2aa94e20bcb5ee33U, 0xbf2766d9ed0de5feU, 0x2f5b1bce9c2220b3U,
  0x7aad6cf465118157U, 0xf5a53ab7d1c9dcd8U, 0x390272b7f72a3231U, 0x553204adb2eea61cU,
  0x138121f833a31956U, 0x53bf69408e5eebf4U, 0x59d0bfdfc7c77f33U, 0x44cb0d71b725c439U,
  0x6bf0eb591275ef05U, 0xf90f34f70ec8579eU, 0x9ae6334881f989d8U, 0x8837a3c377a026f7U,
  0xff0c12072365314bU, 0x2ec9813afe72b7b5U, 0xb3547535c6de3d2U, 0xb43ad21ea4bfce02U,
  0x4027deb8b613ba0fU, 0xd4814f43062a00deU, 0x942933cbc58364b4U, 0x914ff8ceca73b60cU,
  0xff55af597f0d75bfU, 0xd81ec7c46df8999bU, 0x2e7f9df53d59f1ebU, 0x3edcc15207be5c22U,
  0x513f413f8a70ed47U, 0xb7ff133c555162f4U, 0x8197b679ddab029aU, 0xcd6cdf0811b79feeU,
  0x66eaa2c30dc406dfU, 0x5486ed7eac6b2c35U, 0x316c634773fb1b3fU, 0x449f44f381dfa251U,
  0xf9308dab73d9699cU, 0xb7b217f3b9bd1347U, 0xe8c321bf29061a81U, 0x3baf0ca4a2efbce7U,
  0x55ad18854133096dU, 0xf481eef37469758fU, 0xff9a323aa18f1d58U, 0xbd7f1404b40bc8cdU,
  0x8cd6f7aa5c3edb73U, 0x4c343c533c0c4251U, 0x6c155c7fd341d1d4U, 0x45ee5388f5c09036U,
  0x549245c33a06e000U, 0xbefa20b26dea30feU, 0x6065811e05a8e51fU, 0xccd3ff9c1341c208U,
  0x2912c2ba84b2f5b3U, 0xd22845c2ffcb557fU, 0x9807b1e2f099df73U, 0xcaf606b1c7f63520U,
  0x442e3a9967391315U, 0xa76d847fdfe91feaU, 0x9e84e6096dc645faU, 0x17f5e701e0addfbcU,
  0xa7a4dd22f70631afU, 0x2a0dbe674a3909b3U, 0x27e95de2eb897fcaU, 0x4864f7c2f2e83dc7U,
  0xab85ff8d1b7f2c6eU, 0x78e5e14d1817c253U, 0x5e720f7f4ae93836U, 0xadd7608812ae6cf8U,
  0x99759da08e8fde0cU, 0x9a8d3e799dfd568U, 0xf1467b26747fd6b3U, 0x630fb68d7d06434U,
  0x9b62e872b55d093eU, 0x2f1afc81eac1e8caU, 0xd56d9a73ed11c043U, 0x9090314e1c414573U,
  0x2da66245cb70f202U, 0x88227f70032fd911U, 0x4eca130a2be7f397U, 0xc53ec1030affe68aU,
  0x73514c9d1b92abdeU, 0xd63e3551e330757fU, 0xf9b5b89c975aff18U, 0xafab6ff4e54ecfe1U,
  0xbd3c0ea346374503U, 0x1ca633465a7fcfb7U, 0x1ee1d9162c01254cU, 0xcbe2457fb4575965U,
  0x5c9b2d269c9b50eeU, 0x59eaa4d3bae70937U, 0x3fa4c6351ec92f54U, 0xd173c076a5a9b0c5U,
  0xdb02180e60ff7fe1U, 0xf0aba26c3e7f551cU, 0x2fb7cf997d2e89f0U, 0x3afe3d4d0b5cea6U,
  0xf68133041ad70e67U, 0x892e01702055d0baU, 0x8f286c721f1beeb1U, 0x7ddad0a50d10c6cfU,
  0xfffffc43fffffac7U, 0x14efffffdcaU, 0xfffffd46000004c3U, 0x1b200000222U,
  0xfffffe4a000000d4U, 0x606ffffff85U, 0x24600000075U, 0xfffffbf3fffffdc9U,
  0x2e7fffffe46U, 0x370000004ebU, 0x5450000041aU, 0x46100000521U,
  0x4b600000576U, 0xfffffec5ffffff0fU, 0xfffffd12fffffe37U, 0x21afffffd25U,
  0x85c95885c3e1c5aaU, 0x14b15311f398d525U, 0xb2ab53d12df79a1fU, 0xdd052cb2d61148U,
  0xb1d4dec8515e549bU, 0xae1c2696bf603d0bU, 0xd58fb544ad2cf89bU, 0xd13a63e445661d95U,
  0x2055de0e68f45898U, 0x901424ef374ba4b3U, 0xc8b8529b45e2dfe6U, 0xcc55ed93b28afc8U,
  0xeaa97aa6a349495eU, 0xb0cd23f3b44b6eb6U, 0xf32cd3c70145bb34U, 0xbc814534d80bac5aU,
  0xb8941e59d66023c2U, 0xa6185e489d0cf8a4U, 0x36e4d5c34e3831f9U, 0x74b4a7b088fb65U,
  0x4aa306eebfed0ae7U, 0x86fdf5ad3b36299dU, 0x5cab4b4a3d590957U, 0xee34a28fdc12a34aU,
  0xc9c5e9d5b65404f6U, 0xd926bc25fa93d83aU, 0x157985008348a60U, 0xb1bdb2460515fde0U,
  0x1b17b035a7c8963cU, 0x13dbc439cab81cddU, 0xb10438cdf50c52afU, 0x7a9ea515cf686ee3U,
  0x70bccc7eb6c00209U, 0x17f515b25bd5c86aU, 0xe1814120013cadbU, 0xd4eb1faa0b550b28U,
  0xa9c052751da1181U, 0x25f2b518f2993814U, 0x5c5819015dd9f33bU, 0x32cde2d247191766U,
  0x796346d1b2939f34U, 0xb65d4e202ac5e351U, 0x58202fb9576dc754U, 0x333d1f39fc081e44U,
  0x1763c8f2e408d455U, 0xac0e51010f084eb1U, 0xd10efbb3bf123bcfU, 0xbaab0d4d13f643d9U,
  0xd90f62ce36b59489U, 0x303ff7292be9fcacU, 0xc0062ff44c2220d8U, 0xdc52891fcf74c318U,
  0xf26e426dd128f601U, 0x266a62ffb315ecU, 0xf5d7aead1604336U, 0x5b2730b609da24a4U,
  0x1c1e67c6ddf6263dU, 0x6f3be54f1dea0139U, 0x451ce943c00b75f8U, 0x924f79595c3c4673U,
  0xb416dcce105ed82aU, 0xfdd26d7c754ef30U, 0xd936461ffdc10bd4U, 0x224df99f6b9d741U,
  0xc19d44cebf632f0cU, 0xd9bfcf84d1d75dfU, 0xf0dec139f3d406bfU, 0xa6d2cfe32712b515U,
  0xa5b8eff05c645fb5U, 0x391610ad4606cdbbU, 0xb0554d36c806034bU, 0x3d2a12653dcce600U,
  0x28ec23eed627437cU, 0xdbe37bb4fccf322aU, 0x3b5529d33a187553U, 0xd73913ae16a82fcbU,
  0x33a12402415d5c45U, 0xc53e3e443069f5b8U, 0x13d83973f60618e1U, 0x740206a5fca4f10U,
  0xc1a6394ef3ed31bU, 0xd9a6f2bdfa7f93c5U, 0x10ddb2cd4c1901c3U, 0x9c5c3a1d6bb1464aU,
  0xde0b08052ec44f1cU, 0x611663006f13f035U, 0x4a7254eeefd05aa4U, 0xebc02cb7fbf56a70U,
  0x42ff51f94cea2bfaU, 0x3fbed8bb2d01700cU, 0x3a06265d5a3cf4e5U, 0x49e6a2f04edb50cdU,
  0xf60452d3290ed944U, 0x13f84f4e3067c934U, 0xec0be2e1b45ed4dU, 0x55bd54cb0bddd854U,
  0x9e909b0c964d6bbU, 0x47224b5fcb601bc3U, 0x655542fc37cf33d2U, 0x5d32ab70ede803cfU,
  0x68db77a79de4ed54U, 0xbb2b3099b83d164bU, 0x5d0b4951d138030aU, 0x1c61e8e31cc9f83eU,
  0xfd3ef7c31dffd0e6U, 0xed1befbe5c3d5d29U, 0x1bfc13f2ea5718b3U, 0x7053d84d7f006d47U,
  0x1b1ed834502fd2adU, 0xe9c1325415930a1U, 0xe71abddeac4f3a09U, 0x52ea2ffee1c2e930U,
  0x37ebf0f69924271aU, 0xfa15fceae5de134aU, 0x929b3b9fbf6f1d00U, 0x4a05b90f0f1c0df6U,
  0x76d00ed55feed00bU, 0x963721029432e399U, 0xd99c3f2f1159a7b8U, 0x754828dd8cca6abaU,
  0x2f35a1375acf2b2fU, 0x9fc0ac6adf14f105U, 0x3203d26aa83446d7U, 0x54ee04fc68080ae1U,
  0x786d4042d246b133U, 0xadf7dcfb7d23bddeU, 0x2c4c9d94b5cb51dU, 0x50a8d382d6d7256U,
  0x27b3bedaf106fccdU, 0xc2e2fed3a1d07cc1U, 0x15bb152bcb39ad07U, 0xdce9d22de7dce24U,
  0x757f3fc1c2bf27d4U, 0xbcfef0e37adfd90eU, 0x27202466da7401e7U, 0x6ae885552a69edb3U,
  0xf8250e13dd5c322dU, 0xb20daf1c3fdfeda6U, 0xc0b7f55ef60613e2U, 0x344f903adf6f6932U,
  0x5539e0dc45097070U, 0xa57954dd74d91a45U, 0xa4e83241c2b3433bU, 0x6fd81dae28336d45U,
  0xfa0316d5fc2f66b3U, 0xb8dd688e09d81b3cU, 0xfcbb31d2070fb607U, 0x24dad8fb58f20ba1U,
  0x40d7ab7f29986940U, 0xb4bd572d0d72008eU, 0x1e16575c29b22fe6U, 0x76e430caca18d6b4U,
  0x3db63aff4f97b2b1U, 0x240431c7b933745aU, 0xbaea036c39ac3becU, 0x5494041312d7b1e4U,
  0x4d6bd51c0737a35fU, 0x2c2df7e4d3c05d1bU, 0x58c6213dd842d400U, 0xdd513b243912075cU,
  0xb648f1c528e91b5aU, 0xd6cc9daa0de74298U, 0x57d190933401ac47U, 0x9d08a67d358bb61U,
  0x59d4f70616ded0eaU, 0xd639eaf7fb0125b3U, 0xb575427702d64fafU, 0x544931f4acf9fbbeU,
  0x67511ee337e52fd6U, 0xaaebb93fe4231a5aU, 0xa3ae4e4b22144be8U, 0xee481dd622781404U,
  0x70fe2d4f2f26f1c8U, 0xe95228e8edb0c345U, 0xc036b960b9f789ddU, 0x4333d841c8cedb15U,
  0x1acad141b1e0db20U, 0x9d938c7f42cb05aU, 0xff23016239310efdU, 0x38fa9446122f1195U,
  0x82cdc114a869bd5U, 0xfdca9ac36834556dU, 0xf1734ddb5d71abdU, 0xbdd098eb9ac21d12U,
  0x7f34fbe92805e21dU, 0xd042ae2de12942a1U, 0x23b45f57bb1ca759U, 0xeba48456267128bbU,
  0x5b563cd618e1b6f9U, 0xac0fc62ef713e4c5U, 0xc6962e520b0ef0f8U, 0x289feab5d96277bcU,
  0x72351dd1130044c5U, 0x3b30a2b1c9a34424U, 0xca9fc4be302cb90fU, 0x49fd332b09263f64U,
  0xca8c5adfc66c5811U, 0xf90c629bc484338U, 0x1e9c670ee07184aU, 0x5749ff03ccef515eU,
  0xaa88e4ef4af72fdbU, 0xd2582d0441cece22U, 0x36924b3ee7410f81U, 0xd731fe4f00048faU,
  0xca83f2d85de5bc94U, 0x66f29c0eb5fee5c8U, 0x506279744e7f62bU, 0xf223d6fb31239bfaU,
  0xf74882d90f246751U, 0xf231f6a511aabe23U, 0xa543e69cdf45b088U, 0x311b0cc9fc5cae06U,
  0xfd545acadfcfc5a2U, 0xd998904af137f5ddU, 0xbac4b9e6bd97902aU, 0xdffba66f064ececcU,
  0xe6234dd235df3167U, 0xd6172a1ca4cb165bU, 0xef97fac2fc27d7d4U, 0xaeb922582b4fa6fbU,
  0xb153f0552504d515U, 0x58e6bb57b6a800a6U, 0x1df2e76b23a5c213U, 0xeac9ef6eb2fe1cccU,
  0xd022df3e1f4256a8U, 0xc7491ac31fa9a732U, 0x6be2fc77c68b6a5fU, 0xffd562d43a0f9eb2U,
  0xa2b9ccad26035521U, 0x4b56e0d003291ebbU, 0xe50350bfc5f6fa20U, 0xbcd4c7de945d91faU,
  0xa012bc6228952ffbU, 0x663bbbfd512bbb47U, 0x78956f41469bea55U, 0xb13a246f1c9e536dU,
  0x6d8e6409a07bddaU, 0xd7b43b271da0f3e7U, 0x450a673237d40f48U, 0x2550061f8eb805cfU,
  0x96a2b76f159406e7U, 0xb532575d0f752025U, 0xf302c8eed3a9fad6U, 0xaf0413770a39f619U,
  0xae229b439421d61cU, 0xb801192b46ed16c6U, 0xffa857c0225bc951U, 0xd0d7dc1b8c71f248U,
  0xc207edb8b40d40f2U, 0x576f277fce55e0daU, 0xa9bed736305de1aU, 0x54ff67590a3ef439U,
  0xad274de43255478U, 0xe50e64d9042df452U, 0x14d2b0f313dbc80cU, 0x4073eb51c635c22eU,
  0x64f663d653e037ecU, 0xbe6736e57a3dcb04U, 0x171f72153a3d18a9U, 0xa80c071e76cdf7abU,
  0xc300d05e43d4c035U, 0x275c1c52e3b019d0U, 0xb73cd908dd62bb40U, 0xf52d7b015dcfc73fU,
  0x62e150fb43eefc26U, 0x144d46aae46c67ecU, 0xf605012b7f1d4b3bU, 0x2a3c613eddf813e2U,
  0xc913bd0cc02faa45U, 0xd6b35945fd36dc56U, 0xa949356f511ecf4cU, 0x71adea77ae6240f7U,
  0x5b4c32a52d147b51U, 0xc835a7387aef2752U, 0xb6e4b8d1c859c63cU, 0x559b253eaee6c0d4U,
  0xad5df3f8b1b10c24U, 0xb068e9f3bc2c0acaU, 0x3c0ee6ca166dbe57U, 0x57666d5fb2aef7b5U,
  0xbac445b016290a41U, 0x33c4f7f60eec5757U, 0x2843e6442fd1e81eU, 0xe857482a2ec1ea18U,
  0xc632e4404d3e3800U, 0x65d3d85af6600cecU, 0xda19db13000233f9U, 0xb3e9d7d941d1d470U,
  0xb013de353a4b33f9U, 0xd01a02e0296c4abaU, 0x5cfbf6ef01146340U, 0xfa3234336bcef868U,
  0x7501bf5cacd5147U, 0x51b66401f849e3efU, 0x28dd124a57d1f1d7U, 0x3d3805e9cbaec8e7U,
  0xfeb624dcf2d9f9e6U, 0xe11dbdbf1826d02bU, 0xc3eff3041cf702bfU, 0xdb310edffbac1b5aU,
  0x9af36ecc26ef28f6U, 0x62d977cefa7fbce0U, 0xbe7cfdfb71406ab4U, 0xad707e25e00ce617U,
  0xd3ec0b210a063b3aU, 0x6bf82f44e6db5700U, 0xfcca0bc6572741e5U, 0xe10b5be02945c327U,
  0x2fd8617415e42fa3U, 0xdbb58f5e36526e5U, 0x53a2d3a573af2a3eU, 0x2c6f5a63786e0f07U,
  0xb7b04bb62d9eb718U, 0xe406ea0ebef203faU, 0x8346d65caa1f5beU, 0xb61bcdb2aacae15dU,
  0x943df1c43850d2bbU, 0xabd97478b839060fU, 0x19196ebfc046303aU, 0x8fca533b10e3010fU,
  0x65f35eaac1b2fa01U, 0x7746a77cba01bc7fU, 0x26c47d19f1e04364U, 0x2dfbe7fbfaba56b0U,
  0x26d754f626563b21U, 0x38bf7ccaef2b2f36U, 0x3013c820fbe1211cU, 0x42a24878b9d3051cU,
  0xa9f5c0b6b24357a3U, 0xebe5a97922d8cb2bU, 0x2cd4344cc55946cbU, 0x19377a25f891beefU,
  0xd90a4e385edfcb5bU, 0xfb42593eef9ef038U, 0x38ae6ecec4befe62U, 0x5baa24cd64024b41U,
  0xf9927f987901c250U, 0x89bcb0b1fe7ce64U, 0xd81b0f4b4b1b1015U, 0xc131ebb4635357eU,
  0x1646559ab96bd7c7U, 0xd39261ffbd4f91b7U, 0x49f1cf6f5146083cU, 0xdb7529e01a424ed2U,
  0xa5bf22b1addfed59U, 0x201c281518e0c20dU, 0xe065635865f054f6U, 0xeff2ec26c49af550U,
  0x18b3cab45c9cbb8U, 0xc1c5028dd7d04d6aU, 0x531530c8139dbff9U, 0x24355fd259d8dd51U,
  0x3d0057ec57fdfb01U, 0x1c984fb37adbfb2aU, 0x433a4c0d2946ea3eU, 0xf659200d04f854e6U,
  0xab344d98a1d80be4U, 0x6ac9c7bd9a5334f9U, 0xdd731fe73c51cbaU, 0x1d0ece46cb1d86fU,
  0xf30dcadce62f3946U, 0xebe2bff20296aa8U, 0x5c35223de8d242a7U, 0x97314363bce1636fU,
  0xb3941748cf4fc3a1U, 0x19c3c952f4d39c1cU, 0x2cc251636cc03bfaU, 0x1de3d5772bb814d8U,
  0xe0a7c55241d9711fU, 0x452bb5e1336a3167U, 0x57c738c423cf59e2U, 0xc1327d2260f59cd1U,
  0xbec12760dc690fa8U, 0x2f5e3ef23d339edU, 0x4c15c8ebc53fd2e9U, 0xe3527f3c321bc6dbU,
  0x38f915d84fb6d637U, 0xfeec1dadc36ff362U, 0x3cef38e7dfd63cc0U, 0x5362e31866e739e3U,
  0x6bf85928bf1f380aU, 0xda0f0e7d4343a509U, 0x10d0bb43f0392646U, 0xe440e45a2dae343eU,
  0xd6a3e99c64d2caU, 0xffb604f8ec5602dbU, 0x4fe232d3b42a7cd7U, 0xc5ef0f64b04a310U,
  0xf2e6ca20bce8d1b4U, 0xe360da67f20560e9U, 0x71265dc4160b506fU, 0xa3e0d40833d33855U,
  0x6ffcbcab0e4cc4c0U, 0x7366a3edb661af13U, 0x18937cbb1b0efad3U, 0xc486a1d9726ae1fU,
  0xe6359afcd7ef951cU, 0xe4b95672cbe1b72aU, 0x4c9fe2d169ec60b0U, 0x14d81be9c9c133d4U,
  0x5f094cb34fe63417U, 0x351c97afbc8224aU, 0x4d39e1fde10ddd1dU, 0xd508cfa55b1eea28U,
  0x64c79b7f67b685e8U, 0xe51040bcc84c3739U, 0xf14025d253ead6caU, 0x439e52709d54d7dfU,
  0x56cb19b10ed8213fU, 0x1771aefad3624b3eU, 0xb3e12f60db9da51dU, 0x3a3056da05c905b0U,
  0x7164b53dc8ed1cbbU, 0x2b0ae74563d5b33eU, 0x3230776a9c064a43U, 0x4ee05fbe2553739bU,
  0x400c5ad65c13ef8U, 0xd761ecf8fb41c50fU, 0xd6b17a5606b9e3c7U, 0xaa23eab1c5e6381cU,
  0x6416f6c6211011d9U, 0xcd09beb9d19812bdU, 0x14c8680f0b6b9c6eU, 0x3940f7cac3ff40a9U,
  0x5834112117cee2b2U, 0x483a51610245d2a6U, 0x5111580a156fceaeU, 0x7fe6bcb6c20cedfeU,
  0xc260464ccee057d7U, 0xbe3568220124084dU, 0xcade1bec46f6c32fU, 0x60ccd91e0a5dce55U,
  0x680bb657209ac19eU, 0x853bb015b8bdd055U, 0x3e41c3ff12c3acf3U, 0x243e1ce09b4bd5b5U,
  0x5dc5befdcfc293cbU, 0xcac9d3605c0a5bb8U, 0x1445c142ff44f6bfU, 0x5d54bd6716fa2dbeU,
  0x3e65a0bff123dfffU, 0x9a38ef3f0e0f06bfU, 0xfa29db68003d11f3U, 0x11f0edaa0d373258U,
  0xe2264e4ec3221ab7U, 0x8357cf3b29e2f85cU, 0xe462c9e7d575255cU, 0x10392420a4f31fa8U,
  0x2746c1ce3002ef1cU, 0x3345a7379d68e641U, 0xe4eecf170ad9c0f7U, 0xaa3f1ccc220ff3e9U,
  0x1423ee28c07153e9U, 0x7cc0cfe913c84bbcU, 0x27ece10601dee343U, 0x67a4506f1734043U,
  0xd14b0b7146a921d9U, 0xf0bfa57bb715f563U, 0x608a23575a954553U, 0x4dfce1390a2f150aU,
  0x48335558ca24e40bU, 0x9c45aeac529bf1aU, 0x1c0eebd2c6500591U, 0xad2c5e354023bbc0U,
  0xb2b3e375ced3eeccU, 0xf0524650cccebfdaU, 0xbae91d5e3932ee52U, 0x3a9abe7b4e002007U,
  0xd638cd2f550f0e47U, 0x7ca6e422cc1ced6dU, 0x5728ceb29813ac9eU, 0xe2d1107e2ccda651U,
  0xc2f06d531a4605a5U, 0x13ceae3eab2dfbf4U, 0x7fa13a2d42f3bf2eU, 0xfc5c20395447305fU,
  0xb2ca1834d532e6ddU, 0x59a6ee30ef0ddc8U, 0xfac26492373a2318U, 0xbce3d19f01b9c765U,
  0xf430453a21bcd18eU, 0x1f3253780e5dc03dU, 0x7eb11b24d34a7aeeU, 0x10e629cbb45eba60U,
  0x4a23ec1e39ef36beU, 0x4d9bbd55d4d7c73bU, 0x3930bab49ab9c1b4U, 0xa5b3c4d4201fd73fU,
  0xdb90087974c824feU, 0xede44a7f29522124U, 0xce25cac84b2455d3U, 0x2aa8f3cf20a14b41U,
  0x2a514a2738653869U, 0x2ad710e9dda645f9U, 0xb62e7a90bcaf973cU, 0x25671def90d3bf28U,
  0xe1fbb4d02c30c4c1U, 0x522fe8d4c6660e27U, 0x43ee3d303d03ef0cU, 0x2abde3dfe0581c15U,
  0x6dc292f4c2442e3bU, 0xd9c3485bb5895254U, 0x5b387eefcde1c389U, 0x4a59cbcfa910c4d9U,
  0x25075a01cd2cf191U, 0x57b536bc99bb4c48U, 0x2bd7bae1a058c3e8U, 0xf506ece2aa015c60U,
  0x1ef5d40c51a582b9U, 0xec504e9978ddb84U, 0x27daf35464e7d440U, 0xbee8d5449e26e964U,
  0x5ca3e557fe87c608U, 0xe2ffcbcc2b953442U, 0xb6ec1824e758aebbU, 0xe8dd111ccfea34deU,
  0x9ebc09a48f9b9b5dU, 0xed585001b6c2a7e5U, 0xcfe2a2553ee15e96U, 0xcde0b3aa90d50670U,
  0x8f071438a4ce24f4U, 0x4500aca2d52c06c2U, 0x53398a921c591b91U, 0x4a81d972cc34c160U,
  0xfa3e39e76f172455U, 0x3dce0f0591372ed1U, 0x948334025c0760c8U, 0xc06b3555faff4507U,
  0x620349faa0a7692fU, 0xd2e7e95f3b31d7f8U, 0x8b1002eb1c64633eU, 0x66fe1847439304ffU,
  0x7719fc1615f19cc4U, 0x3d64ef4ded0ace22U, 0x2dd8fb39eb69b2e9U, 0x65eaf0703cb59b2U,
  0xfcbea8dc43ade1d2U, 0xfc30bbf77d24b3cdU, 0xc5c75f1c075357e5U, 0xe404311a0f601cbdU,
  0x580d51f5ccd48fa2U, 0xdcf00f730145210U, 0xe331e53d3f7f20b9U, 0xbad9d5002f7c0cfaU,
  0x4b4beb3b2519d811U, 0xb0041c4806ebb349U, 0x55123a36ca175c6aU, 0xdc92c6ee50ddced7U,
  0x5310b06fbc030e27U, 0x111b0eb37e41e05cU, 0x25da73a8cefbba1dU, 0x2edf085e9e5a39a8U,
  0xd1dabcdf60f9ef7U, 0x4f2dc33b163d174eU, 0x494623bd433eade2U, 0x2a294069d5cb4c38U,
  0xc1a246fc0e657d1U, 0x4625cdc23f1fadd8U, 0xabd6fa2640ed66eeU, 0x74230516bc6c0736U,
  0x34dbda2308f6cd36U, 0x24f2b1755651f121U, 0xb905b3f90e40da04U, 0xbe1036f027534910U,
  0x2aa293744f62b58U, 0x42eb62caf9dd730fU, 0xeb0a34a3432c2e1dU, 0x2f09fa69f42b6b46U,
  0x62372e2c5d40f52dU, 0x32740a24d958db36U, 0xc5d255b1ed700719U, 0x6811584af3fa0339U,
  0xbaf8c96ff5660e43U, 0x597342db0a4fe1eeU, 0x2fdbd0e8cdd64dbeU, 0xe5cbab74177f6ba7U,
  0x6159b6e8e6b6e169U, 0xaeec0d0d5946bf45U, 0x39a4f96e37f507e8U, 0xd94a6059e07ac3e1U,
  0x74645404d9ec20d4U, 0x19344976b02033ecU, 0x74c76d490aadb0c7U, 0xdf711a05f5f5bb1fU,
  0x60246711c3fd44dcU, 0x24e645b75dd3caddU, 0x18a3c20be1486f5eU, 0xe1fb6dcc08c2d34bU,
  0x42cf4eeaa8bc7b15U, 0xeecb6627a61d28e0U, 0xfbb7ab62c73a526aU, 0xa7704eb40c3e8d27U,
  0xefa4cab55a15f050U, 0x52dc4047d8685157U, 0x66a9a460b52ea513U, 0xb338f24733b7b568U,
  0x10e130c1a5f3f06U, 0x38ef17c4ce44ccfbU, 0xf331e93405f46b3cU, 0x174d507d57ba3eb6U,
  0xb3ce71ebd60a5e05U, 0x6ff6abcddbef22cU, 0xde299613e021b3d6U, 0xfb1f26c704211035U,
  0x5da788b4fc5e71fU, 0x4eed11ee2de7e75bU, 0x1801dbe53affeb13U, 0xc82078db6c35d535U,
  0xd63020fa57295c05U, 0xeede5335206cd1d9U, 0x151ce0b51da2f46U, 0xa74f7f1e7b16b894U,
  0x3dfb7244c12b71e1U, 0xc8975fd0421c134eU, 0xe765354c0ac1d1b8U, 0x1cc4f5d1132cb9b8U,
  0x875b2cd52a31401bU, 0x1ddf22975d7a3406U, 0xc7f9cc39231548ffU, 0xf237d48eeccb65dU,
  0x2e2706f9633c22ffU, 0xe0a26d212530368dU, 0xe4631739245235f8U, 0x4c43781100d6c462U,
  0x11215342fb3ecff8U, 0xb71964d4dce510a9U, 0x77602e36f79ce603U, 0x4f4a0ef67ee1f478U,
  0xd22ef8be5f3cca32U, 0x70d61a9dc07f288fU, 0xf352b82e779c39fbU, 0xbb54405978fd512cU,
  0xcf1909bcfc416142U, 0xbbb204e01dcb6100U, 0xd3c0bfdbcfed5bc2U, 0x1e22100e02cadabbU,
  0x94af6a48aee464e9U, 0xc4f86c99f34f10f1U, 0xbf121f4e0d0dd2eaU, 0x19f4dcd8c0c10970U,
  0x93f0f2af17fd3a24U, 0x10f1cd2176063f00U, 0x17f91c5f3bdf65d6U, 0xe5c569d136493e12U,
  0x65c644bec647cc9fU, 0x6f7a16569ebdbdbU, 0x445818d81c71b7e6U, 0xc3e5cab4e0ffd36cU,
  0xf5d9eb3645ecac16U, 0xcdec672735ba5a5bU, 0xb6c66be5482a3d5cU, 0x49d3ee44cd613160U,
  0x7cc1cef057321751U, 0xd53131454621cdacU, 0xf53d626a3f71e2dfU, 0xfebc942feef72c2bU,
  0x59dd36b829f1fdc0U, 0xd5dec6c75b4e0940U, 0x2e5db50c1e7ff969U, 0xc01017ab1c544352U,
  0xe9f50920d6422fc6U, 0xaa4768cd4001de43U, 0x504f24174b18e715U, 0xaeaed0f2050323fU,
  0x46fc6ac848af2e25U, 0x1f294198cebc31afU, 0xa36d10c33e73ca5aU, 0x9f9c4c93234d53bU,
  0x62bf12d8bac843abU, 0xe51c0e5711ee2b6U, 0x515f596eb8d02f66U, 0x1a2b25a3b7f3eedcU,
  0x80c570bd42e57a2U, 0xfaf99f260ce219fbU, 0x34e574e21dadb603U, 0xc5122503cc6a2d94U,
  0x147ba4aca528e8c5U, 0x7d5dded8a0eca44dU, 0xd7bde962a6b0c45aU, 0x2bbcaf1bde30e48dU,
  0xcd2667526ff92208U, 0xccc1ca0d3771beaeU, 0xeaaf9bb03120d54fU, 0x994f9e52c1061491U,
  0x4dbc97c548fc1221U, 0xc51243fc3b778caU, 0x232d5b1802fd51bfU, 0x641252c8f61ea6aU,
  0x1e793b30d6a84a17U, 0xea02b8eb5c2c3b20U, 0xc343e7b851de12dcU, 0xfdee743d1979294dU,
  0xf5176f097c300c66U, 0xfbf49dc520d2163fU, 0x70034b2d361570eU, 0xa4ee10f61fe744a2U,
  0x22d190771aa9a627U, 0x20c5012305d07fbfU, 0xd7e31a0275b76afdU, 0x361e4c1ba8287234U,
  0x8f3e64fe53d081eU, 0x4944d9cbe9383102U, 0xc469decf5bdfbd0cU, 0xdc2acfe222fa9b0dU,
  0xb4c925a21f62b834U, 0xf72ed5565e2b40faU, 0xb8f84ba15d4b3bafU, 0xf7c92cc935c0d158U,
  0xe61a213f48d9765dU, 0x3321deb31dbcf2a2U, 0xc045948c9ba5e65U, 0x3ae82a134d2a33e0U,
  0x154b7f39f3dfd92cU, 0xdbe119009dcce8d8U, 0xe62208b8e303efbbU, 0x553037eccebe4b5fU,
  0x483253c406220c0dU, 0xb6d0023ae95227a3U, 0xb87cd5d6cb46175dU, 0xfb193efaf135fd22U,
  0x5864d74864ca5c1cU, 0x69dd11cb6823dabaU, 0x684a07b26357fe3eU, 0xf1a9f70537fcdec1U,
  0x2ef3bdb92a1fc332U, 0x6a0027f71a57b6b7U, 0x451f16b175d1b0d8U, 0x4207ba0feabacb56U,
  0x97b731d06afffb03U, 0x32fbf4ef4c690438U, 0x541fead5e100413dU, 0x404a211707087222U,
  0xe9ba0bb11525f6dcU, 0x190e13e15f29d11eU, 0xcbe8fc240d5bb0d2U, 0x32d9212025c24639U,
  0xe000772d2723712aU, 0xbe49008dc3f25914U, 0xc010436fc6d34ab5U, 0x22126501fbdc97e0U,
  0x4d59b91f597062bcU, 0x71c0c01162e81a32U, 0x634cf1b7bf386fc9U, 0x432869307b0a3a7bU,
  0x22864bec27edb61U, 0xab170e13e93b6b0fU, 0xfcc2bf0339311c19U, 0x2215ccdd38b9193fU,
  0xf85060b7bdc37f73U, 0xea125e4fc542f211U, 0x1daa9dbcaf937deU, 0xe3bc3eba4faf2b26U,
  0x34b11706b4cb4259U, 0x6541120ba94353d7U, 0xa6ec3bbf5133b528U, 0xc7c745e006c8143cU,
  0x7eecd7774d0c0334U, 0x5ec46defd2b1d1e6U, 0xbbe9e2c7273d20e3U, 0x2f2b382e3f0eeeb7U,
  0x7aa91509fb0cc01aU, 0xf954a62b3f165f49U, 0xb5aa39e6344fcdfeU, 0xe965d9163efff356U,
  0xe450de5c03b3db4eU, 0xa7e150fdfec9ff11U, 0x5fbae554cf4d4b1bU, 0x271bd9c9857fefbaU,
  0x70dd1c230b9a2e8dU, 0xf0d20249682e3862U, 0x2330e222e5e5b912U, 0x173fe859d3b33f3bU,
  0x3d1000594c25243dU, 0xc32bca4640c51a5dU, 0xeb467731dbeb421dU, 0xd0a5d5f5cf6b5250U,
  0x2844a60321b78ef2U, 0xed28ff2b1330b6f4U, 0x5461e6a9dd42ee5U, 0x3be2500049b14c33U,
  0x5d4153b70dd4b04fU, 0x2011e6e752cbef02U, 0xbb4f5233102dec3aU, 0x6f5fbfc225edc336U,
  0xc6fe384a55e9bd59U, 0xf2f701a26f510432U, 0xad2004b2314733a0U, 0x2af0a9f1e7da1624U,
  0x33281912509a5e89U, 0x40df007bcad56dbU, 0x245b013bc21cc2aU, 0x39fae84b4266d101U,
  0xd1252ab49db2daedU, 0xb6dff22ee650d8a2U, 0xcfdfec2642411af6U, 0xd9f9bc8c48061acfU,
  0xe624d9793d5ba0eeU, 0x4b3c234d4fb3304cU, 0xfb1454e7f63af50aU, 0x5c2519a468685034U,
  0x396515611852a312U, 0x9e3974590ab5cab5U, 0x342a203447e05c50U, 0x4ba93cab3458f245U,
  0x7651b944ad41b6cfU, 0x9ae90ed106bbdfaeU, 0xef31da7f247f79daU, 0x6cfd1bbae8c344d8U,
  0x1a4f3bde31134d52U, 0x8cb4b3b32533d040U, 0x82f664041fdd6fcU, 0x1ed82ddfea1ce233U,
  0xc2330bf85c5be3b8U, 0x31686eeb7fdbc5fdU, 0x7f73bda07e6ef10U, 0x5cbf9ce5f559baacU,
  0xd7e3c9ca144266dbU, 0xd938fcb96b4eec86U, 0x571b57d3ff0d021bU, 0x184f5de5c7c12bacU,
  0x19fee21ca1fb0e57U, 0x170a48afe838a9dcU, 0xb637e93c73734f9fU, 0xd952a49dddecf639U,
  0x6b5dec732ed8f80aU, 0x9ceb4c0e47d1f89fU, 0x12e80b99e37553abU, 0xb55ebe3bb248662dU,
  0x44eaee092eab436bU, 0x4c6a55c24f6334a2U, 0x313e0dc0bd4fdf4dU, 0x54dd0ff8e1abc9e8U,
  0x4a1fb91323282ef8U, 0xfee577b5391458d7U, 0x11bf21cacb2310dcU, 0x1939b05adc72b764U,
  0xb83b3e6473eb0f74U, 0xdb40cfb661a57802U, 0x5c0a41d813425f5fU, 0x595a01e13056adb5U,
  0x9a565411432cebdeU, 0x5ff3ede497245620U, 0xea3b35ef2e487a1eU, 0x3efbe41a60a2d717U,
  0xcf4e759bb966efd6U, 0x64bfd349e33b24c5U, 0x385bf62a27dcb522U, 0x1f0b4deb26ffae5eU,
  0x9938e6335bcbeda4U, 0x30a0df3e3b3207a6U, 0xcf68fa1cb8e15fd9U, 0xae011302b7d552cdU,
  0xf640623605e8e762U, 0x73ab3339c3b42053U, 0x84af358f40815ceU, 0xbb114728cae825f6U,
  0xbab67909ac14c07aU, 0xf8fdd2fbc8c2c61bU, 0x4761bd3e54f34ac3U, 0xd8f9cd3e08f9eb18U,
  0xa7406afccbcb7f07U, 0x5abc7599a7ef24f4U, 0x5e7f160d510c515fU, 0x27f767d8c0b930bbU,
  0xa2fe75e74c3c4fdaU, 0xc7fd4da73003e2f8U, 0x78c13b76bf1943fcU, 0x23cfcc2aa722d86aU,
  0x311d1bc2c706bd55U, 0xca2edb58f45854d1U, 0xfed6343bdc2a020fU, 0xb76411e67fd1f556U,
  0xc4ce28875958e532U, 0x5f3ef0cc0fd6d7b2U, 0xc22aee20131bbd0aU, 0x2d1ceca570c50a8U,
  0xe139413dd74c6c0eU, 0xcedfd2cd2d1c6059U, 0x2e3d21b5e20775eU, 0xf7ea73ecbab9b648U,
  0xbbe8bdd8d154d3faU, 0x16113de5f7d348dcU, 0xccfe24c9cbbbc746U, 0x30d773f475f103c6U,
  0x935e52cadc715b35U, 0x3207055fdb0548e8U, 0x5b31c2ea72b71c33U, 0xbab756cc3325c4b6U,
  0xc0e2b9de51240256U, 0xe74c33ceb62b69e4U, 0x4bb40c15aca22d2cU, 0x14093eca20c428d4U,
  0x21193a4b6e4ff230U, 0x1acd3b6ced050550U, 0x1719bf6423a04001U, 0xc91f4f534fd7e9e6U,
  0xff4c6d0bfd71d1fU, 0xc9ae0f7ef3df1cd3U, 0x31b1a518e29c53c0U, 0x2e62c6cacda4bfe2U,
  0xb2a5280e2f65aff9U, 0x4dee44f73953fe36U, 0x30a8b1c205e93202U, 0x2859c6024876c9c4U,
  0x8d69f71feb41dd35U, 0x771baede454e24e5U, 0x32ea04a71d5863a1U, 0xe8354673fa2d2b94U,
  0x5d6e52deabd1617fU, 0x47fe2b7952d04c0dU, 0xf05960bc30ebffb9U, 0x5015814d7342cddU,
  0x33d05e8dfa403028U, 0x595cbc25b2c9d7dbU, 0xfd49332a3db556c1U, 0xe12b67ef00ca05f0U,
  0x8b2ab8bed5cb3653U, 0x3351cbff0925d06eU, 0x54d0c24f3a18e9a0U, 0x450672510ff1f84aU,
  0xf557ffa7402f5d38U, 0x7b2d35afdfb6a77U, 0x38dfcb44debc2c3dU, 0xf02d7e3120392f24U,
  0xf8b12a44bd06cd1fU, 0xe90bb54334dbeb4U, 0x2bcabfd95cd40f9eU, 0x623626deefbbe3aU,
  0xdfb2272766563a5aU, 0x6ab731d8c2f13950U, 0xc0412442d5d35351U, 0xd8535ecac32a4b43U,
  0x1910683cad6039f3U, 0x3af3b833e954c1a2U, 0x772ee761293837bbU, 0x625c44a0cfda038U,
  0x20326e05d7d877fcU, 0x2fdcedba7242f22eU, 0xed18225a6ef9f219U, 0x86b70f536a840257U,
  0xa0771ed81d6f553cU, 0x72882a05750340d4U, 0x62dd460809d26e58U, 0xc4e53fa729af4748U,
  0xcd1de90fcb24d060U, 0xf624999d43237039U, 0xc5bce24b3d96cb69U, 0xbf0392a23a2e1e3U,
  0x27a9364c43fdeec2U, 0xaf1a5ac4c6c64cf6U, 0x107d4a5cd9d6f90bU, 0xc6ad5c3c7fc0e5b8U,
  0x117ce0aec30eefaU, 0x30f632ef4bd850dfU, 0xb40ee3b53c545e0bU, 0x24b5fddff169be48U,
  0xfe520a37c30d1de2U, 0x1a0e56ea16f41cc1U, 0xe5dcd0c33ddeeed7U, 0x60f1615720bb6d6fU,
  0x6e6060d127c1c53U, 0xe815dbafcef00d24U, 0x5b5d127709656804U, 0x555210b4fadc44e1U,
  0x13650547b3ef4562U, 0xf2fb6e123d0d25b4U, 0x2c53c91ac1744617U, 0x532400c8d3d07363U,
  0xd81fdb53c4c47adcU, 0x161a08b70d4039fdU, 0x15d368b1ec682d67U, 0xd74f48a6fdddfc46U,
  0xf85cca2ac9010334U, 0x496d29a6f2445235U, 0xd822c144b95bccd9U, 0x6ceacebb0e2fcb46U,
  0xcce31ebcb5c29eeU, 0xbb3fdcf379ccdb40U, 0xed491877d77a22d1U, 0x4612b756776d787fU,
  0xc91e4274f2744e5U, 0x3621bb5810d4cadeU, 0xfa9fd768678934bdU, 0x2fb1701bb5aa44b3U,
  0x24e2d9a2e8b3e21fU, 0xdf4ef541ac33bc74U, 0xd3cb894a74cf91bU, 0x49f3723440bca01dU,
  0x12df9a0030b93784U, 0xbff2f22908fa4060U, 0xc240c74c1af6f75eU, 0xd58d1b5f56865bcfU,
  0x63dd7b5c1bea623U, 0x4425f8c566c18136U, 0x744206d6e8ff0e14U, 0x9850301eb228dd4cU,
  0xde9fe6fe6d4d3daaU, 0x6f4bad771249c03eU, 0x7eb01a2e6d006877U, 0x53cef53a6e38d409U,
  0xbbb8dc076077d86bU, 0x74d34f624b2ad3a0U, 0xc75d18e78c3d0bceU, 0x2d4d61b8b1ce26c7U,
  0x324332baeb30e0c6U, 0x381a37502b26ef59U, 0x1cdae17475e856b3U, 0xf3e77ee6add5de23U,
  0xf549bedb25e4cf17U, 0xdecb2ff1630d2648U, 0xf2dd60021002f1cU, 0xa2522f83baae9edU,
  0xe3d9e349b718c704U, 0x2e9e112eb41ad63cU, 0x49211837e40045b7U, 0x454b9183df612d5U,
  0x50a6442e22ea2926U, 0x841b2ffe50bf710U, 0x828c45b551e3504U, 0x3053791f401def05U,
  0xf8c7e20bb263f027U, 0x7fa5ee16d71a231fU, 0x1f2e52e4cc31192cU, 0x14fac1d827d6be1fU,
  0xd1fbf0d234c7f7e8U, 0x56014916caf0b203U, 0x2bebe44f27144b68U, 0xd6232e70f7fecb43U,
  0x23f923d6fb1cfd17U, 0xd60d051f15ff2c3eU, 0xe2090cdfe516b702U, 0xce5ceb29b9ee14dbU,
  0x1de7d251f0e64cbcU, 0x56c13bf95a170afaU, 0xd639c656edbdcdd9U, 0xd95cf47142d80ce0U,
  0x1cee452647132d41U, 0x4cbe03123465561U, 0xd63d41f1ef52a8a9U, 0xafa745ca1fceae3bU,
  0x31ae2e3af8361581U, 0xc747c8f42d14dc67U, 0xf5f875ef2fb0a461U, 0x72bdc03147c8c95bU,
  0xf102d37d5e8ce404U, 0xb2fe07594ad2cbf5U, 0x61c700d7cb185aa2U, 0x30fb3eaf1e6e7b67U,
  0xeb92956e0d9cb0aU, 0x9c14b0601fa7b861U, 0xa209f35d5f59ad41U, 0x74ebb29f2bf53b91U,
  0x6c095cad6bc506d6U, 0x977a9eebd6f6fd49U, 0x4708d6022bf25f13U, 0x5716d71b98ffc907U,
  0xce00d87dd4944caeU, 0x33b4cbcffae4335bU, 0x9ac566c175254343U, 0x55d034e6fabeecf2U,
  0x24c0c30e69ba26fcU, 0xc62922062e4dcd0cU, 0xe144021f4cc3591dU, 0xcd2300342cb74751U,
  0x5a68a0307539a51eU, 0xc9ce4f1917fb9b27U, 0xf3efafc2956cadfU, 0xcfc0479defd3d73bU,
  0x3b4caf0119dd11aU, 0x3f3340e31cd40748U, 0xc22c4c1546bc24f8U, 0xbfd00bc4fec5272bU,
  0x8333cd56540cf3fU, 0x99cd5230199feaa5U, 0x31d9dc6ff8752934U, 0x44bcd0f5c6c0c9f2U,
  0x13f44d49b426e3f6U, 0x5d584ac47febbfa4U, 0x43eec351c04ce3ddU, 0xcbf78d4dd4b145e9U,
  0x541cb9704e53acf3U, 0xfcfeaffdf40f33e7U, 0x5af5704400d1f77U, 0xd9d23d0a32e62af2U,
  0x7460fe7ff85c230aU, 0x4d4257d7572fcc35U, 0xf4c35fc800f16294U, 0xda05078fad666433U,
  0xce715d48cf370594U, 0xbcc3ffdeb6e7cb44U, 0xcdbdc7dc75e9386bU, 0x5061b5afbc6731beU,
  0x43e27c358ebbe2eU, 0xcf23dde856292f6cU, 0x2e482ec4c2ef3c3aU, 0xfae13adac1ba2374U,
  0xd458f99521667fcaU, 0x32494e3cc064b3c0U, 0xa155acdddc3bd741U, 0xfbd9445e0a95606cU,
  0xdd0e42bcc33a2647U, 0x12b46ad3d958c2bfU, 0xec488efe6f904de1U, 0xba0f6cd753a7c4f4U,
  0xd4e865e6d759060aU, 0xd94105f02fc752daU, 0x4d5cb8dee9aa20c4U, 0xbd68dd1437f2081dU,
  0xeae536943916fa34U, 0x3bf5f2f82d67adf1U, 0x1c5ff1ee76a230ddU, 0xa87b7ec74e92c834U,
  0x382fc4fe443d7715U, 0xfca707e3e3d4d3efU, 0x1f6b072de0987f38U, 0x56445509bb40e6d4U,
  0xb4b926cbd4262f60U, 0xefe33fcaa7245d27U, 0x7259e751379bae60U, 0x2247ef2e6bca0dddU,
  0x9e352b6b9cf89c51U, 0xacd971ad64abc13aU, 0xb6fcd5c5cee7701dU, 0xcccf2ccaa664b16cU,
  0x4a5d2d11d3ff5f15U, 0x63aeaa4b2b24060aU, 0x3f6e002f301ad971U, 0x748b2f025398f1cbU,
  0xf315c49e0f495d40U, 0x3bba9b3754b3e77aU, 0x8b9a4581eb2ca0aU, 0xd5412760e7e3ef24U,
  0x68e4e347b01ac3b9U, 0xf04665c3e6ad1a3U, 0xbcb404703e8e144bU, 0x41a9451dc431b53cU,
  0x3fdf12a4d97136abU, 0x4feaa1d5f7f8c56dU, 0x4713614820048924U, 0xc253b7c524a50a65U,
  0xfed5c5cecb8d27U, 0x14ad1f7f68056a4aU, 0xcdb0bcbc563618eaU, 0x2b063e3ca4e4ecb2U,
  0xb2d82172ccacb5abU, 0x79cddc572cd7e4a6U, 0x6f1f79adf1304cbcU, 0xf0a85c260a060cd6U,
  0x1a5afa62ed10e296U, 0xe309fb11602e09c2U, 0x41f06e5b5d3eca05U, 0xb0a1b4a4d211242U,
  0x204dce1161339210U, 0x22724406ffc165ccU, 0xa88dcc16d5d66558U, 0x5836a10f22192511U,
  0x3024483c140e86d1U, 0xd928fdcf44204a3eU, 0x313e21d0eac604c0U, 0x547a66dde3af318U,
  0x335a0427ef98c711U, 0xb6131041eb6329e9U, 0x1a35f02e3fdedca8U, 0x3336bc60af38edf1U,
  0x642cdafb1643f2c2U, 0xf16311d12d1f016eU, 0x20aee1ec163e2622U, 0xf3eecfcb02296a3cU,
  0xddbbe0e522f68ae8U, 0xd70051dbbfb9cbedU, 0x369876c2d17fc549U, 0x2a3556cb0c0fd3a0U,
  0x39dd044d4aafc230U, 0x8d6e00f1e02116f6U, 0x1daab1e219d3fc1bU, 0x659ec551d6681f29U,
  0xf9b836d0f991b2bfU, 0xcc6bb544e62c5d2aU, 0x3b5479e5e0cf12afU, 0x48381978a0d67bb7U,
  0x3447132b0418d163U, 0x34c42cd8cbeb0babU, 0x1214476ef343680eU, 0x530536103bfc5e57U,
  0x543ee644e1ad3502U, 0x252ecb58032b0d3aU, 0x405e267c3e74b0e7U, 0x42b438422e706901U,
  0x555cf86d4f28a335U, 0x6c23333ed72cc06dU, 0x67b24aff51d106b3U, 0x5c51082a4dd74ce4U,
  0x7fb3c820e419f3baU, 0x1b18ea533fcf72b8U, 0x18d5303618423646U, 0xf9b4716460e0e4c6U,
  0x14c4d1241f23d628U, 0xb5df387743a849ceU, 0xb76279a6052cfc38U, 0x3ff05cc50c80d28U,
  0xed65ed4aee15e84fU, 0x9d0d169280bf3edU, 0xfd233eb40f40eed3U, 0x2cc8b700f4450a15U,
  0xfb7e45f8c5344d07U, 0x49a6f31a65a9261fU, 0xd650eaeca3db1417U, 0xe442f2974fe74bf2U,
  0x5639523fbaf563f2U, 0x8a1130ca2ece0dbbU, 0xd6e498ee3b333970U, 0xbb3a1ee504fd6052U,
  0xe12711e1c04c6d0cU, 0x203b040b121d564aU, 0x3bff092eecceef26U, 0x24f3d62779346f44U,
  0x233268e2fd44d560U, 0xa1c258031a2d613eU, 0x5c683d5b3ae525ccU, 0x46f598035afab8c2U,
  0x2abcdac59df5f0caU, 0x8728d99e6edf148eU, 0x5c77d7d63b651869U, 0xe119f58a10e12679U,
  0x2878cf493856e61cU, 0x2c170bc37fbe0790U, 0xaf6d1517321d1502U, 0xdf4dd1e8be5f66b2U,
  0x365ce3335e1a4f21U, 0xac10e6e4ba34db12U, 0x2b570bbd9443bbedU, 0x35a5942af9c1ad5aU,
  0x8e5418a61697acf0U, 0xb7ab53d9a5b61c67U, 0xcbe0aa5ad758599eU, 0xb6dfa56ea4a9063aU,
  0xc117ed9a620685f9U, 0x35955beab00b5913U, 0x8f120f874317b2f5U, 0x97b46086df3dde11U,
  0x19d038fcd319efd7U, 0x8508ed7f7bcde88U, 0x5ef081642610933cU, 0x5be5d9518f3393c8U,
  0x16c8ae19009621adU, 0x8ca633534cc155e0U, 0x11963e2d03955212U, 0xa7c406d5e01fc760U,
  0x8b02ec20cbb1d827U, 0x1ae34551038fb0beU, 0xa029d0f6d348e51fU, 0xa82e0a2feb45260cU,
  0xcfdd0c3e05aec943U, 0xd910488c61bcc13U, 0x9be5340b5417bc55U, 0x7a7c4a00ac361eeU,
  0xebb8ec3ab6e3d632U, 0xf622b3ebf63fbceaU, 0x18e03815ab8ad9c8U, 0xf01c9f50a9deac0eU,
  0xf63efe48e8d0f700U, 0x5b9f08ebf2331e11U, 0xe8066b9e080b2199U, 0xa24830bee6d392b1U,
  0xd99c04f2ebbdb9c4U, 0x5be25be727594fbcU, 0x4eb7dc2971f82cffU, 0x9ea42d271102d332U,
  0x2653c7dc5adc4ae4U, 0x1cbff8315330bbf1U, 0x2b6b36f246c35ddbU, 0x1c671a46511647edU,
  0xd8eadd2f5dc5377fU, 0x562059f1d4efe95eU, 0x4846b341c0022e0bU, 0xbaf30be268cfe719U,
  0xe31051e20c20c278U, 0xcfc1554ce373526U, 0xfc5a1c5fc936babbU, 0x302c24d1484f1511U,
  0x4bf54f2ce32b3bdfU, 0xdc112e590f341e6cU, 0x6f48fed2f9c3182dU, 0xc91668451f41fb6aU,
  0xc8e4ae41160705faU, 0xe90d4f58ffd6ed61U, 0x35b72009f8a7c9a4U, 0x36ef56d5d00d45b7U,
  0xb0fbd1beb45b4cc9U, 0x413d0c02584c9db4U, 0x5b22b797a21c9f0fU, 0x36ca74e5571fafcaU,
  0x482faa52c127c64eU, 0x2cb8be26ae7eb346U, 0x2d1aad77748c701eU, 0x7055222693bd911U,
  0x84b230e3fc50627eU, 0x73f029db09d02cd0U, 0x330718474003e456U, 0x253cc95bdacd390fU,
  0x50f5f6523fc13b5aU, 0x20e823eaa660d454U, 0x3fb25a3db81cdfd9U, 0xe12e7f2f5ae2d160U,
  0x852f1651ae53480cU, 0x142a79e9bb3e5e6fU, 0xedf512990e501d3eU, 0xccb653ecdbf84350U,
  0x2c0e3e5e3e01f33U, 0xe9ab152d9fb361d1U, 0xccba445704e1a56U, 0x451651e36322a742U,
  0x8ea6544749424abbU, 0x75e7e4262bb44a48U, 0xaa85405fd4d381eU, 0xb506be1a46df3027U,
  0x8cebd9c4acb645e9U, 0x525500e165ea80fU, 0xdd0faab02119bbc3U, 0x312366c5cdb3d644U,
  0xc3c52c43e3e8caf0U, 0xb95a321fd9e25bedU, 0xe5c62b28f529d384U, 0xebfe23874518d94bU,
  0x38fd28fed2c548cbU, 0x43a8ca0a1426ccc3U, 0xdfe4b1afa6afc087U, 0x4dd1fb9514bc1a61U,
  0xebfe9ac5de5ebbdbU, 0x8aa00950d14b8b4fU, 0xa10b30bd9e490082U, 0x900790215ff4ba07U,
  0xf9c3e731cc4fd41aU, 0xa2070202364420a0U, 0x87a9463db11cdef7U, 0xc6a43632d5210a88U,
  0xf783a1c53032404eU, 0xb8cb0a43a485e6d9U, 0xee515c434b4ae75eU, 0x4ebe63d8053f4b8aU,
  0x4cda81fca1961d19U, 0xcf93db2ea2af8c55U, 0x1c12d017eb083504U, 0xe69e302ee03c830U,
  0xbfcab48bed2e17feU, 0x1a92850621cea049U, 0xe62c439ea674ac44U, 0x43f8bb0aa999db4U,
  0xc3c91d6f00eb1de3U, 0x8a8f13b082c631cdU, 0x6f0033ee08ee1c11U, 0xd682740c41bc0d66U,
  0xe66e27043be99cd2U, 0x27d49705bd999de4U, 0xb0ed8f9a8d4a61e7U, 0xe698f8a4d7ab318fU,
  0x92344cad490b0024U, 0x4a8d9516ca63d1edU, 0xab4dea495831ca06U, 0xfcd406978282e95U,
  0x8f4bf3bbcb2c722U, 0xfbb4120b560045e4U, 0xa3f41b220fa50f45U, 0xe0b062ea0170dcb0U,
  0x424a05909cf3ff90U, 0x9679357a3aa58125U, 0x78cc2d9957415c15U, 0x51e68e17fa69bd9bU,
  0x50e98661eea58c08U, 0x947027e9e9290fffU, 0x20b106e66f644df9U, 0x4444953ab7bcf505U,
  0x3ef5dcbe992d2bb6U, 0x50eeb070b727b9d5U, 0xcaf8ed3969b25626U, 0xcf95ef012948bc42U,
  0xbb38f314ca02310aU, 0xfd3a36c2190085c7U, 0x2172d98db0d84c46U, 0x9f5f9d2e9676311U,
  0x5adfa9cd23d0f59dU, 0xcfca1379c267b75dU, 0x6560b154d4a4c8c4U, 0xc19fbd5d3f3b2939U,
  0xcc32a2afc7d2210eU, 0x38bb6bb1acda2669U, 0x9c025c20c84282bbU, 0xd5485bf1b0ecfac5U,
  0xe9c71f67a143e1daU, 0xe4c65d3bb11e5733U, 0xe71eba703524dd3aU, 0xa4120eb4d1f2025U,
  0x4751e17f50ebcf5dU, 0x591df0c12fe962ecU, 0x3918bdfcb45ad8a5U, 0xc8f4f7f6c0088ca5U,
  0x504fbf5cc5c63c43U, 0xb4651b2a5440ddcaU, 0x3d9c666fc9a7eeafU, 0x6d215349f671200cU,
  0x4f016342dcbcbdaU, 0xf40e8e2f3c63beaU, 0xbfc63fe46bc3b3fcU, 0xbfc3c00706ccdbc8U,
  0x16151c3edcdbda4aU, 0x4716da233000075dU, 0xcdee6fd0fa7fc719U, 0xe0eec25a3e5261bU,
  0x4ef1ffd835463611U, 0x9e78dd2d2e450e35U, 0x7a7b2c1ab19fa32U, 0xfc4b51cc55241c63U,
  0xf59bcbe05e1a2990U, 0x136ac13e1c0fe2d6U, 0x61d3ef205ecbc615U, 0x6fc10361a8faf148U,
  0x1cc9eacf93e2fab5U, 0x31d93c22112f383cU, 0xb20032082a4fcf2dU, 0xc4ee4e89c0056041U,
  0x46e2b164995dcbcU, 0xb75bebd2429dc46aU, 0x7fccdc43450b144U, 0xd4d9c2df1e681e36U,
  0x684deb1bed11b621U, 0x1422baddd523190aU, 0x67f3eefd2a194a32U, 0xfcc5027d9d27170aU,
  0x3f144cd8abca3aaeU, 0x1339f3cf2a0757b7U, 0x22d016ac0a35e7c5U, 0x66e0b718dc32cf32U,
  0xaf32c1238c7e0f2U, 0xe468c244291feaadU, 0xd2e2e727e828d4dcU, 0xa7f9294ab95f5141U,
  0x9fed7e014ebcbe9U, 0xe629175138abd02bU, 0x3df42cd2e85be951U, 0x7808bd19e0cfd301U,
  0x4636f403b3de47f8U, 0x226955b469e346deU, 0x9017e1b4fd634405U, 0xfa09d9e2237753f5U,
  0x61c203323e989e32U, 0x416d2a2ca9066f00U, 0x963226f84bc3caa4U, 0x13317d7ed7074b6U,
  0xce2dc22d58af9ecfU, 0x3f7c36404928eacfU, 0xf0f9d1e116123756U, 0xd4ceeadebe1efb8dU,
  0x47cfb3e1cd0220feU, 0x8ffe1206eaf52deeU, 0xbfbaddae67e9574aU, 0xcf1a4019f4687fe8U,
  0x19fd9b3a42ee90a9U, 0xe27cf15c320cfa01U, 0x2dae7011fbe01d4fU, 0x34dc0539ab4a3002U,
  0x19b50b7fecf003d1U, 0xec637dc1b0b0e68U, 0xbe1566365bf542d5U, 0xcdd54d1dd91be1e2U,
  0x6adc4d60ce0f14aeU, 0xcb34dae87d5026baU, 0x1a4b1dbd2865efa9U, 0xfcb7ac59e7e3000aU,
  0x2c4b3e65b7da1a18U, 0x31ee110708e1ee34U, 0x35dcf3b4b076f265U, 0xfa4b48270e34c8c1U,
  0xf0be56bad00148bcU, 0xa53b006b42d6163U, 0xebd221dcd9d90336U, 0x1dfcf84c232973f2U,
  0xdcf5eb2d5cc94fa3U, 0x3afad46449f54a02U, 0xcd18f434ea244014U, 0xb4dd47bca0fc283dU,
  0xc5639aebb8bf2ab9U, 0x9d3d6e481ea95314U, 0xd24e463b7130cff9U, 0xbefa2722d65de2b3U,
  0xe83de25b40d6245dU, 0xd72ae7ecbd2b1d24U, 0xeab01cfd1da32e4dU, 0xdac4fd3828b4bd55U,
  0x2bc000db2a42f8eeU, 0x7cf2593450f02d50U, 0xb253cfbeddf86b42U, 0x1a4c7fc66b58e211U,
  0xc6451bd8212f3d41U, 0x6d54cae721c6c8f6U, 0x3200242c2bee52a6U, 0xbe1dd6d1e547aa58U,
  0x154621ffdc5c5b5cU, 0x1ee9b1b521e363eU, 0xdac1ddd8d8ea3b44U, 0xf049c746da5125c4U,
  0x4ee226b20df2f54dU, 0x4605b1d8d160e717U, 0xff496f1115f4b6d7U, 0xcc7654eda7a85307U,
  0x151347d7c8d44cebU, 0xf938e77233d3446cU, 0xd70f0ce9cdb107dbU, 0xd7d16368ccdda3c5U,
  0xcdf5572a41e22f6bU, 0x43f06ddcd1ed703U, 0x51f2ebbed9fcf245U, 0xc9200c61f1c72db4U,
  0xe7273f693f1af8d5U, 0x710d1fa4586abbeU, 0x4e9cd920f463cc2eU, 0xbbfaf89d12226dd3U,
  0x7f00bc0730901202U, 0x14ddb72d591abe77U, 0x158f1ed2f06be8c2U, 0x7ad91c26cd595163U,
  0x71f0d465daa029f2U, 0x33ba0411cb264aeeU, 0xa64a21c624d161b5U, 0x48124766f6c26afcU,
  0x914de5b3eaaa09aU, 0x94212d573dbd3567U, 0xcccdd2ec214216dU, 0x82528bad7e065acU,
  0xe812c262ff39a827U, 0x6bea3bc0eea770cfU, 0xad56619d12e8cbe9U, 0x22d0e81b1719431cU,
  0x18d81b6dbf950385U, 0xee6c49e1102d212dU, 0x4ec4396ccaf6c843U, 0x148d5565f5c659c1U,
  0x7dfee7e7b2fc0b09U, 0x206423b7c6a9f968U, 0xece60ab1184ff524U, 0x265d92400b3e31abU,
  0xefde055e05ccadbcU, 0xde75f807b221abb1U, 0xb2b460c9f57f1a73U, 0xb7f0380aa653edf0U,
  0x189bfcca232c38daU, 0x34b7f3afda453a22U, 0x52afbc44472643bbU, 0xc05aee3a1ea1d814U,
  0x1cdeea779ceed514U, 0x31125853232bba77U, 0x5d4c6faff83ff815U, 0xde24e5f33a4e06c7U,
  0xebacae29324b1697U, 0x1256b9f2cf6d1739U, 0xf2ba1dbe294d1060U, 0x61dfc20296d22635U,
  0x9d3fa8a95c1e9d51U, 0xf059d742523f5d02U, 0xfc1810f847359614U, 0x55bebf52bb6d0f3cU,
  0xa552e016fc13a252U, 0xfb33d95b023f9861U, 0xe635f5c3e64a5f2aU, 0x3cc32f55f15a1039U,
  0xbdfac4be1ed7afdfU, 0x1f2ad0e570323056U, 0x1c60449fd52b542U, 0xdc402c00394d5739U,
  0x371a27e9cd5a14b2U, 0xc31f702418ee3144U, 0x70f66ec961536871U, 0x6ed5c31cf96e0b05U,
  0xc826424eba125de6U, 0xdef64d2e441ab7dcU, 0xc0d6c16b2b3c05b6U, 0x5a750a6ebd64ecc9U,
  0xfde06351b5ee67a1U, 0xc7772f5c10e12664U, 0x57d1610fd7bf3001U, 0x2354ba6eac77c4f9U,
  0x6427d324c12466b0U, 0xeeda74e77ab24518U, 0xf4aad06712482cb4U, 0xbd6d4a0f00632db8U,
  0x2c55ac1906f12cd9U, 0x38dc075b1d53fe7bU, 0x2db6f33a6f59de53U, 0x3fe344d1fe376428U,
  0x2e0bf567fa6fbad1U, 0xdf117ab2566743bdU, 0x74ee1670fac540bfU, 0xbbe7164e2653fe2fU,
  0x533796e27482ebcU, 0xac2c409bbb0ffdcU, 0x5c61dcb411732d33U, 0x7f21b300634bc0e6U,
  0xcb22470bdaed32d7U, 0x1f5462d9d826c6c3U, 0x6179a9c53bed404dU, 0xbb6077d47be0f022U,
  0xa027c5cebcf1e43dU, 0xaecb6bddd4ef19daU, 0xee7eee0d32e821b5U, 0x145a2a286990a7f6U,
  0x27484a003ddd5b2eU, 0xad5210dd5c6336bbU, 0x34112d7613d19bd7U, 0xcdb837166e98b7fbU,
  0x89ef28906f586507U, 0x189ce6353d73dd33U, 0xb6db932e3f9847f0U, 0xc1324fe76f9004e2U,
  0x304258b954ba0ae2U, 0x14b436415b524315U, 0xec74d4623e2dbbe8U, 0xebce6da266edaed5U,
  0xf8db5e00c7390559U, 0xcc545cfb5967772bU, 0x750adb4d34bf010dU, 0x3d0acf3973911dc8U,
  0x9f1a3a82406cd51eU, 0xdaeb4cdefb7fb929U, 0x3ae030d239ff4ea7U, 0xefe2d740eaa6bd28U,
  0xd0b9bcc84007efcbU, 0x223a96e27d1b20fU, 0x5b9850ef66a630c7U, 0x1550b17cddb55863U,
  0xb6070850402410d3U, 0xdf054ceefb2e41a7U, 0x5eff3cc429de90dfU, 0xb5ef609c9522cdb6U,
  0xdebf36e608d00315U, 0xd348e1d09a0f417cU, 0x40c20afd79361f48U, 0x9965adf0db05450eU,
  0xb16924c1d51341c6U, 0x2ff3567352095db7U, 0x35a6201a255cf860U, 0xb6c140d50cc2ef56U,
  0x5591b1e752c31238U, 0xb40df27f29be3111U, 0x5c51d908470f0547U, 0xfc1453cced68d028U,
  0x1ed1422be2d806caU, 0xedd301bc3a3bc45fU, 0xe85b12b802d7ebe6U, 0xb84c511bbcbaa3b3U,
  0xdbf0184c4039963cU, 0xdde9b14a2ccead7aU, 0xd4b9f1d9ac4d2d53U, 0xb58f33d35a3ed7d6U,
  0xf0c9fa2810d6360bU, 0xb9629555fc32cee7U, 0xd5386167a31007c9U, 0x345ceb0df359beecU,
  0xb2c83aefcecac4b1U, 0xda4019c43fd1c81eU, 0xe20bfbc4bda63235U, 0x552235a7c846b421U,
  0x31b41963baa3d302U, 0xcc0cde3bdbde1439U, 0xa5f50e62dd39bf05U, 0xe461ace69bf99db7U,
  0xd11b087fe72dc3abU, 0x45bd0051c01cd44U, 0xbc622713f6c82d5eU, 0x401b6c1425d0e26aU,
  0xb2ad17460551af56U, 0x5c0630690264be3fU, 0xd8ce234646de599fU, 0xe0ff5c38c9f9a3b6U,
  0xd06fce28b7fced04U, 0xc3580362e43b3b3cU, 0xeed4d0468b3c3f8U, 0xf5c5ef45cc166be1U,
  0xfd23b81eb6e5b46fU, 0x25e5c8c2f40f4cc7U, 0x3853d01fb8d33dc5U, 0x370c7c51d1f640e5U,
  0xbc605a536c0fd62cU, 0xd335cdf5aec40ffU, 0xcd06fc115e09535fU, 0xc0bb7263eff45356U,
  0xb9fb27310eee3bc5U, 0xe5416133b6401ed9U, 0xfb560f4770273770U, 0x68522f2813047049U,
  0x1572dadf29783e38U, 0x70b63cedfef58e8U, 0x22cd2361f0b41d7U, 0x536015ca2a6855c5U,
  0x5ddc604053a6f19U, 0x61b2d5220ee9b4c3U, 0xfefe81d763505dcU, 0x2b52332bf0783b49U,
  0xf52a5a1ae036e653U, 0x6afd14532646d602U, 0x6d24ea50c73206e3U, 0x4ccf260fe9133a57U,
  0x6b71d461f2d25f6bU, 0x6fbe34beb717c722U, 0xe7b82824f2eb213cU, 0xf1e92a4d6c1fba56U,
  0xc35a6ad018417942U, 0x2d4445c449c146e4U, 0xfd0ba23d60d8f108U, 0x337442627f314758U,
  0x6ae849382d43af30U, 0xc1514627244cef4eU, 0x62e7b24458b35fd2U, 0x73e6e0515c3bd8f3U,
  0xa130f408614beb31U, 0xc0bdde50b44bdef5U, 0x101ab37326466a11U, 0xbfccfcb6d7b04c01U,
  0xb5d2e4b95805a9f0U, 0xc6e570b77f30b944U, 0x2fe24ec345d8b955U, 0x1b50bc3daedbce6fU,
  0x266264d0014233cU, 0xadb21d09b1c1ebc0U, 0xfa162cf2436bb01dU, 0x17d122312ed1d55eU,
  0x3d47121ec9792bd6U, 0x38a8040224f98f8aU, 0xe314ac3ac5b60a2eU, 0xabb10b169219b61U,
  0xb6e0e3e01bbd5b58U, 0xd4ff2411cba85dccU, 0xe9e918ddb5d57509U, 0xd9e4c9bbc91d1874U,
  0x6cdbfd51f65edd5aU, 0xcfaf1fc411b03cb6U, 0x4a1fb8f0333fe9ccU, 0x4abb12b7daa7360cU,
  0x8f391943b1cc33bbU, 0xe41b3c3ad32fe91eU, 0x644ce9fd00eb1ee6U, 0x15fa4109613a62efU,
  0x122d4a93387d5417U, 0x271b6a58f14b07c1U, 0x56d49a6ee61c73baU, 0xf14a66cff3eafc6aU,
  0x9edd62bd4dbd22f5U, 0xdeee5434b349d80fU, 0x4feab860f35f1d3bU, 0x19a569e438873526U,
  0xa906d1cfbf072e22U, 0xfcc06e425a1cfb50U, 0x33e82914b32e47f6U, 0xf31e0cf6df8d142aU,
  0x4f3b11dfff337efcU, 0x39f17f2051503752U, 0xd4ecf04fdbbcf4fbU, 0xcfcc34fbf0863dfU,
  0xebe269bccf32fe39U, 0x4d92ddb200eec920U, 0xcbfb2ae2f7b7adfeU, 0x5f2e23decb3cbf78U,
  0xbc8d74331e93fb3U, 0x77aa31fb0ec033bbU, 0xb5f065ba3fac62bdU, 0xa423fba67b9faef1U,
  0x8de3a96e3a9c66b6U, 0xbb82e3e11ce1c52cU, 0x4506fdb1f3fe32aeU, 0x4dd95765f51993a1U,
  0xcab0d2fd1d5dc1dbU, 0xed6c637b15b6a873U, 0x391b0506785d0c32U, 0x97515d29dfb0c7e0U,
  0x25452145d9ad4c2cU, 0x32ad2afcd3193065U, 0xf89f24192860a605U, 0xf541021683d29b24U,
  0x40fcdc65bb1eabf1U, 0xc456c041e12eeb73U, 0xf8b278ba204cf302U, 0x284f4f186d1ed405U,
  0x966f2bc9a7bf1bacU, 0x753704b0ea8f0107U, 0xf11b29d1f9ebdbd2U, 0x442be8f2f2a4b19aU,
  0x691ebdb05d16f31bU, 0x1d1fba7f23150558U, 0x46f5ca35ab4411c3U, 0x62a5e0bc298d6af8U,
  0xfdcb32fce0b63551U, 0x435e63cc845ffc0U, 0xd3f5712dbb13e38U, 0x9e3d5b0e94c8cdd8U,
  0x11d1fffffd4eU, 0xdaa00000977U, 0xfffff6ae00000879U, 0xfffffc47fffff4b7U,
  0xfffffbe7fffffe5aU, 0x2deffffffd1U, 0xb7400000e99U, 0x33bfffff404U,
  0xa5efffff079U, 0xae3fffffa04U, 0xfffff0befffff9eeU, 0xbdd00000079U,
  0xfffff53bfffff387U, 0x1066fffff795U, 0xbd100000fb8U, 0xfffff04b0000019cU,
  0xd3afffff2dbU, 0x1027000010eeU, 0xf06000006b7U, 0xfffff8200000126dU,
  0xfffff7ef00000f10U, 0xfcf00000b9dU, 0x74dfffffcfcU, 0xfffff974fffff61aU,
  0x1096fffffaafU, 0xfffff65f0000035fU, 0xfffff37200000e28U, 0xffffff08000000adU,
  0x7d00000063dU, 0xffffffd8fffffe81U, 0xe09fffff7b0U, 0xfffffbce00000adcU,
  0xdf5945abc58273a3U, 0xf7cb67d30a0cf410U, 0x33e0edd31ee54f1eU, 0x33efdbf671ea9748U,
  0x47fb0e03b1b1f212U, 0x7114f35003d41259U, 0x34f04a14dbecc207U, 0x4953b240cd3b9804U,
  0xd6d41f03d58878ddU, 0x2148d1b2fab8eeb0U, 0xc847903005b661cdU, 0x12963160d6ae287fU,
  0xa829f9c06cbf1fe6U, 0x6641e7a3fb3e1c2fU, 0x5d38574cc0f5e44bU, 0x31c4be5e1eb24806U,
  0xf5b6e7dbac46dc02U, 0xf076f9af51981b10U, 0x50114b50d027d5c5U, 0x315854d5f3a94d7fU,
  0xab1c4150f9bbc16cU, 0xe02036e6af2402ceU, 0x4f46bd841d1595cU, 0x45d37f51f6504bcU,
  0x2a7503392921305cU, 0x436538c9118ff8b0U, 0xc6cbf3cf4948f448U, 0xa0383618e5d22444U,
  0x11d8341dc62b554fU, 0xcbd3e8463b2d41daU, 0xb9fb37f263f46b58U, 0x3e4ea5bab25ceb62U,
  0x2e2dd75b02cf4eafU, 0x5e08bdcb2229e526U, 0x79b386cfecde9b5U, 0xbbf5d2a04df9ab1bU,
  0x464152dd66e7a6b4U, 0xce1ec53bd21968bcU, 0x3a6fce0e64e1cbbeU, 0x553904fe14ee0a74U,
  0xfa902544eedadad6U, 0x4f566df37b17986bU, 0x47c01c3e7edc0541U, 0xaaf9d5be0e41c2f7U,
  0xd9ce5ed665186bd0U, 0xd04169fa9b51ef4dU, 0xf0e222d183dc1ccU, 0xec1b9b5b34278eb2U,
  0xd11e1fdf1e002ae6U, 0xcf714d121136aab9U, 0xacd457047dc30848U, 0xaa6164b272b3c563U,
  0xc9e3f3181d1bf2e6U, 0x44431d71b3b22feU, 0x2218dde45be2f270U, 0xb3ccb65ac92b8c23U,
  0xada6450437ceaa01U, 0x50d424dc3ccf62b9U, 0x529d24487936dfcbU, 0x3ec9ab8d37d5bdc6U,
  0xbb5dd37f27d2fe4cU, 0x4e4c2427f1d1cb03U, 0x6a6cafe1363f3ed3U, 0xbadac345b4f02cf5U,
  0x34bfeeefdcf431a1U, 0x37e2c42d4d45dae7U, 0xca12146941fafad4U, 0x41bf1f34d4a95032U,
  0x8d4ad368d3bbb904U, 0xe8486ecfdf3733dcU, 0x620612e72664caaaU, 0x6ac3c8fa02d79eaeU,
  0x66a9065330edbee1U, 0x62082de048603b33U, 0x538df17606273d34U, 0x90e3eaa205a52745U,
  0x84b3c2e61e08f756U, 0x615768a5cc787031U, 0x30c2ce3d24be4bc7U, 0x1fc0bca9d908fd3eU,
  0x5f4dfa1130bb20aaU, 0x1adf08445023434bU, 0xf7a330bb545650e4U, 0x4336fafa08f32df2U,
  0xe030105660fa31c5U, 0xb9d6e2e8134aba17U, 0xd41d144bd9d23e00U, 0xbe48fd0a5d56e053U,
  0xc6d0e62ecade3eecU, 0x29dec117fb9c0d25U, 0x21401c046d482051U, 0xfef1fe41fad4a41dU,
  0x353ae51708a6992dU, 0xb8bcbe23acf5f04cU, 0xe1f9b55fc6a28edU, 0x4f153800e9dc02bbU,
  0x4c59a1c9249558b5U, 0xecf72eb3443225e8U, 0xbc11eddb4fc6d2bfU, 0xdea8421dc93abf2eU,
  0x39643144d3c458eeU, 0x1136c3d2d46a645dU, 0x164cc5f1d67bcf47U, 0x432112c1cc582e2dU,
  0xacc6cd364abb77fdU, 0xfd50709de9b6b26bU, 0x32b8195838146836U, 0xc54ebe040b273423U,
  0x90da301105464d4dU, 0xf61a3943d7c54ac3U, 0x4cd507362dc9ec06U, 0x26f51dffc94bb12fU,
  0xccc7d2dadb187fdfU, 0x116ac5400cfac1e8U, 0xf25ec2952b9ef35U, 0x9e35bcebf711a5d0U,
  0xf0a2cea13d0b8deU, 0xf40a083c1d29504eU, 0xecf2305f74472348U, 0x3cf24dc26500e416U,
  0xd1441e31eb123ae6U, 0x77e6d3f6b30e6829U, 0x6aa00c04241df59aU, 0x84fa1c6bdbcf5bbfU,
  0x25ced10428030819U, 0x5539e54217e614c7U, 0x50e78e4d3c7c5b03U, 0x4fd253a5bc5e4c1U,
  0x9e06dd5c3944ddaaU, 0x53dd6b5340f8b4d0U, 0x61579ada6b1c41ccU, 0xc41ee06fc01e05fbU,
  0xa0cf25df295dc129U, 0x19fe3be9e3cb3305U, 0xc7c90b6e2b29da42U, 0xead2cc3013f3fed4U,
  0xefcbd00468261030U, 0x3ded5ab6b9e7f1e7U, 0x62a2bf2b7fcc2ddcU, 0xaa1fc855fcc665afU,
  0xe4374e03524fc5a1U, 0x472dda2c330a1637U, 0x2a7934cdee2306e5U, 0x1a4c46c4d5cccabaU,
  0x190262ee26e6dee1U, 0x1368d2bdd5aa2c4dU, 0x602ddb4ddf5ff8f8U, 0xef2a1b29c90527f9U,
  0xcf694a76624df3b9U, 0x2dba04a34325b805U, 0x5ff7a505ee6f53e4U, 0x1b2debbdf200f710U,
  0xf5e6daf22a321654U, 0x6adef3bb682162f9U, 0x5ead4dbae5d01a03U, 0x18bc6f6669df3a0cU,
  0x9dceff5f14666089U, 0x3b140c161a5f5a4cU, 0x56e3d7c9b6602f03U, 0xbf05f7521e73eb36U,
  0xf76bc6edbce187d9U, 0xa578e4f3246f703aU, 0x9874473f7c76d8caU, 0x7d65015ef963e5b5U,
  0xef3adcf11d02b8c7U, 0x20250768ff3ba5f1U, 0x331ef7e108a83b11U, 0xdc5af45f42d00d2cU,
  0xacf6a41c8ee56553U, 0xb0579eca643c2c54U, 0x16675d533ae45a20U, 0x5c2bb1b6444dbd70U,
  0x5dcaf9befefac0e8U, 0x22c07cc640185c68U, 0xf1b56f60010432d2U, 0xf79e55ba3c32cceaU,
  0x77e8ed598fb9edcdU, 0x13d6c5893b41618dU, 0x92da39dc0697ac18U, 0xc316bedb2b31be6fU,
  0x258ce44a2b174657U, 0xbd7539ca1740c438U, 0x386eafac3d9a2a0dU, 0x9ea4b0e37abbcebeU,
  0xf8ec617da701486bU, 0xec34416f25e12e42U, 0xee1e1405a917faaeU, 0x60972f9fa730e6eeU,
  0x346f05ce189b1907U, 0xa5960fd40dcfc2fdU, 0xa6b4d822e3f647c9U, 0x81bc0bf4a96e2114U,
  0xaece7b3d92b940cdU, 0x7748e0cff63a395aU, 0xaf074942197ee91U, 0x4b08d81cd2523a04U,
  0xdd40f5a5e97cfe32U, 0x3738387c2efb79b2U, 0xc21ed6f7c556ecfdU, 0x85d8171fb44c4d73U,
  0xb987348159f7f911U, 0xc34021e80126cfceU, 0x2202c0b0b4c862c9U, 0xbf091f49c632a39cU,
  0xe56c7629185b771cU, 0xc15dd4a6393e5432U, 0x651cd4e8f64a5bf9U, 0x6f682419e35d0c48U,
  0xc52ff09b39122412U, 0xebed154330562acdU, 0x1d180138ea462fb4U, 0x15e9dc0c3df611e8U,
  0xbb3bb57f25ac77f8U, 0x30271c5e00f1c6d6U, 0xf4b723370ac3074bU, 0x7ad82ca7414f2606U,
  0x349366f64f404b07U, 0x9b07bc2c6d794f24U, 0x1c326a15ec42b67bU, 0xabf2c1df6a4eb0f2U,
  0xf151747b4fe21a37U, 0xd578ae0e05c830e9U, 0x377641b0f0991d08U, 0x513d2f5ef6b51519U,
  0x3d42e498bd2500ebU, 0xf7c651e1c60c4c1dU, 0xd7b9f4424dfa4e32U, 0x717b9d50b11ce21eU,
  0x7afa4269bc400f2aU, 0xebe477d7eb26b614U, 0xdae61d3d1c207159U, 0xba682660c7da1959U,
  0x3c2a95826647c8caU, 0x49cb5a0d0944dcfdU, 0xb9e13239b63a1860U, 0xac36e905f2bf0b42U,
  0xfed631700324d3dcU, 0x5bfb3927306c09d7U, 0xda50c0bfadcf10b8U, 0x3befccc2c34a33e2U,
  0x4ac150d2e753f054U, 0xf2cf39e860e508c9U, 0xc0fb5ff2a272cb6cU, 0x2e3ab046c1c1a2eaU,
  0x37161b54da4d422bU, 0xafaf084c380db659U, 0xf32c5d9f1eb06cc4U, 0x58c4cdc0ed413414U,
  0x35d05f9d4807e06eU, 0xcee409af1d64f064U, 0x9aec08eda056e236U, 0x76b9ed4142565729U,
  0x3ca2abf90730736dU, 0x5372fbde9a3116c7U, 0x460307acf416f612U, 0xb1dddd34a18419eU,
  0x4e2b4fd765229be0U, 0x98b65c55767b0bf7U, 0x11d423edf1e8cd75U, 0x7441d99b425d50b3U,
  0x692bd0aa3207bbd6U, 0xb520cd96be0c2e14U, 0xfbe6c45334caad3bU, 0x78c71f0b6c49c0f3U,
  0x2420106a9bc8ecdU, 0xe73fb8cbb37f64e1U, 0x435d52e8b4bdbd2eU, 0xe6c62db8dc4a541aU,
  0xe6532f666aeecaceU, 0x71365b23d6e22aceU, 0x31c967d82e584ff6U, 0x4202acd40c2f57c4U,
  0x1d9a8a0d64bbdc7U, 0xf3c7d7cd0a005acaU, 0x8be255060b34f802U, 0x7b48d0402d13dce3U,
  0xf8a740edc72a3a7cU, 0x174c66f2e9ddaad9U, 0x4e243ef1a428adc1U, 0x6be6c330dcfed01cU,
  0x11231b29b5b1baf6U, 0x6057eca8bcb4371dU, 0x19083eb6560fd60cU, 0x5109bd2bbe60e564U,
  0xbf4a16c63a02ab73U, 0xf00c2266fe181bc4U, 0xfd5423650f6e1d0aU, 0x6dc9a7b47ce82d28U,
  0x69fcf0d41bf62fa5U, 0x3f77cfad47fac431U, 0xa72ad9da4f2bfeccU, 0xfc3c4d0bd6ef31fcU,
  0x4ae9c6b678faad12U, 0xb3705ce7ef653b68U, 0x48f02bfbcbe448d9U, 0x16cf5542c748ac12U,
  0x27c8091d09906033U, 0xf0c1baf7c05966c1U, 0xf7accc04d4ff5d48U, 0xd361c2ac57e621c3U,
  0xe062727057e92c78U, 0xf94c54b1caf73a1cU, 0xe115cd13fcd8d37cU, 0x47c6d739e72791feU,
  0xd9291030e0045662U, 0x4244d913be0f2927U, 0xc7cca66146704d0aU, 0xdfbee628f1eaedf3U,
  0xcfc60e18bb064017U, 0xdbc1e20ba8edbf02U, 0x21bd1bd0d9165964U, 0xc9dc4acfdf34116bU,
  0xb01b486cfaf4d33bU, 0x52fe4a9856ed0b21U, 0xb40dc91e6838ba5fU, 0xd5c9b1e6f3b54951U,
  0x40643c7f05c10849U, 0x1528bbefb3c55a35U, 0x152a1a5e220e7817U, 0xfe5aeefe6e6695f6U,
  0x2eb9e14fb2a5e228U, 0x26421ebb95970acdU, 0xf8e1aa57cd48e811U, 0x5f85ae3eab5d84eU,
  0xe71d35eb2fd6e2dfU, 0xbcff18de2b9a52ccU, 0x3b500897fb482dd7U, 0xfaef72cb6493057U,
  0x205ec130f4c4bb1fU, 0xcacc3dcb52e9cdbaU, 0xb85e0efbba3951c6U, 0xb7eb1aff312e4cd2U,
  0x918bcca4d1747b7U, 0x4ccd4dbdcac92554U, 0xc225b7b6b819fefbU, 0x14c850bf2bd2e6e7U,
  0x9d461637349adaa6U, 0x15a8c6d14bffed36U, 0xc05bf54c0c3625e7U, 0xa51bfe079f210dd8U,
  0xa1dd5570bb6f659U, 0xccee15eaa20aa03U, 0x3ab5ca3632c9bee4U, 0x1407f79902c936e8U,
  0xddda4d5e20c236b2U, 0xacae42d82be50649U, 0xa649af169aea9816U, 0x27b3f30ad22f613dU,
  0xf1125fb7d5532d41U, 0x2a2d1ca5c3e64fe8U, 0xa31fd31bad5bf212U, 0xa8f302de3eb05220U,
  0xcb5d48f8e6f252d3U, 0x20bef2f940811aa6U, 0x315133d8e50551b0U, 0x44c857dbeedd05dfU,
  0xb8a03fb148e04490U, 0x1cf10c1de843d0c2U, 0xf035583b33480bb5U, 0xd5f74e13c8d6c715U,
  0xbf0b742e0be3eba6U, 0x68bb1f909f252227U, 0x45c038d72e3fd731U, 0xcbb147ddc8f1eb3bU,
  0x62226eab2e057c1U, 0x311133283c594dc8U, 0x1f080c3f49273f3cU, 0x269d48389b442f27U,
  0xe5df43f3e0f769f6U, 0x1255cb9491efe1b0U, 0xe10b0a373c24faecU, 0x46a9045abfeb1c70U,
  0xdf1645fb08b91745U, 0xe39fd0d7cc2e40a9U, 0xd03dc3e464c49723U, 0x21ec1f1abef70d55U,
  0x2032306e32f037b0U, 0x2ec1b02391dc35aaU, 0x5dba0ebde712a817U, 0xd0ced668d51211e0U,
  0x98deeac3c0e0bce7U, 0x2822b6ea0cd23212U, 0x41fb21014d4ae903U, 0xd593af4d21aba5e2U,
  0x1a1516dc26c03056U, 0xcf5993cf2887fffaU, 0x13f9b5e9b83724d8U, 0x4e50fe163376150U,
  0xcb37f30ad243bc64U, 0x2c00a865d72dfcf4U, 0xd24f27c7405e2db3U, 0xdbb6ea60c3f3dc3fU,
  0x192e32c70aabb9e3U, 0x53b5a10f3f1f489aU, 0xdb5b531909eee493U, 0xd04a57eb3750d0beU,
  0x132bc48131ebc950U, 0x8d03bdabdcd3916U, 0xefc613e32b3194dfU, 0x97e9b7ce4cc1f260U,
  0xd0be4c0b2d9b6bd1U, 0x57cd5cac263ff767U, 0xb14537635befc76eU, 0xaef0ec0642dffb6fU,
  0x44ab31e31d0ba69dU, 0xf2c3f968fec646faU, 0x6f44cdff73f675fU, 0xb0fe38224de41669U,
  0x60281e01aaf46129U, 0x3153ed361281f4a0U, 0xdccb001d2510ed54U, 0x16ddbdafd60e46dfU,
  0xf4c04156ccd3fa08U, 0x3f63f51252adc608U, 0x61de6f58ef671fc4U, 0x6d2dc84c6a65bc07U,
  0xbb4cad25df9d399eU, 0x28eadda643d05723U, 0x13a99ebcfa1addd4U, 0xea4b1e454da019daU,
  0x4f28f629e3a44618U, 0xce6c5459e467d6a7U, 0x6bd5b74af27220b0U, 0x4603061d5ecc2558U,
  0xef7920f952c3f3a7U, 0x62254b2efbad34b7U, 0x38c7322ab3253646U, 0xcde12ab1372a271fU,
  0xef13e5d345566dfbU, 0x9b6ce2d5571f351aU, 0xe6e3c33c745cd96dU, 0xce9611e1544a0757U,
  0xd6344a052bd2b53dU, 0x3f6e25c4389e67e9U, 0x3be85840d0c2cb4eU, 0xd79d3e3fbefaf970U,
  0x9e5c2e2deaa239f2U, 0x179df3c6393c345cU, 0xf1ee6e49f954ba6dU, 0x389ce0b3cf62a2c5U,
  0x9ac46bb31521c63eU, 0x29e945a641156e5fU, 0x43f5c0943e95b21dU, 0x36a5407b38ed1c79U,
  0x685400f84bdfddU, 0xfed8ea144f9ead94U, 0xfc162aea140e32edU, 0x9fe4d1a6fa07292cU,
  0x11770b0919459e37U, 0x625cf8491d84a60fU, 0xc26c24ebf7083aadU, 0xa84b234454d5cc51U,
  0x1cfaed03c0594c29U, 0x6032cfcf57cbb624U, 0x7ec16e15babe6afU, 0x44ba8f07d3e8a408U,
  0x2723f411dfc9d3b6U, 0x4eced4df141063d9U, 0xee015a57080291d3U, 0x15e1aaba483f6dedU,
  0xbc46a5b0c4ebb9eeU, 0x591737b21c69b4adU, 0xd2505ac03b63a754U, 0x5afbdea133c1f312U,
  0xc1e71d6a3f2505fbU, 0x3a73b52da4089b47U, 0xef7fb125623832aU, 0x24c4d6fa5ef96aa9U,
  0x17c0b1c82ceaac67U, 0x3b3622d6535afdceU, 0x2215193fdce293aeU, 0x58a052b196e7411eU,
  0xb67f6153b1d96312U, 0x12fb06134ce5c397U, 0xb3c9afbc2d41b714U, 0xe9fe305d354292aU,
  0x97129db15c391769U, 0xb915e756bfb83c3eU, 0x1ae4f85c4524fe61U, 0x11991e5c1ca636a2U,
  0x27e424edca20c2deU, 0x16e1340256141d4bU, 0xc91351f547a23929U, 0xb21518c664da0eb9U,
  0x1126c0d4e41ef7a8U, 0x40512e23d26c3deaU, 0x58e11f11067d5f07U, 0x493ce9ee1cbfa504U,
  0xf4f4c4e9e5aaf0c8U, 0xbe11cc912f5e42eU, 0x3b05cadf1cc61751U, 0xadd5015c4d39452fU,
  0xecc9e038591335b9U, 0xe1313f433b11d5cbU, 0x4071ec46427f22b4U, 0xcfe31f0341e99265U,
  0xbffc44d65da911caU, 0x64dadb08d60c48d4U, 0xf22ffc08f414e0ddU, 0x2fa4c205d1331f2U,
  0x10c51f0cdbf8f9c2U, 0xd3c19cc25eaf061U, 0x5e3e193fe46129dfU, 0x10cef4cdb7452459U,
  0x4a65ba232732f507U, 0xf6f36bac58dcd544U, 0x1e35b0500e37d833U, 0xc531375fcd246040U,
  0xca4d5f3d486dbba4U, 0x5ad705125bce1cbbU, 0xf570e21a713be8ffU, 0x5231f359130dbe47U,
  0xbf5ce75ebdb012b6U, 0x3bce083fdc215b40U, 0x4bb0b56263a0300U, 0xc6e26cef293a2fdaU,
  0xee02f4c21ecdabf6U, 0x345afdc10c651d2bU, 0x30f41a702531ba45U, 0x26c327b9c10ab9e0U,
  0xd95a9c0330a892feU, 0x4a4bd82702dec249U, 0xf62cfd38ec34ff13U, 0x6aabbc9df8a40c24U,
  0x21bea6e8e091006eU, 0x51a91dfaa656d35cU, 0xe2e0242ece47f708U, 0x4db3492ccbe96c40U,
  0xda5665552cebc2caU, 0xeeb5bba65c22cf44U, 0x5956fea6d66cc911U, 0x52f8280eb37095cdU,
  0xced82f81ae10ed05U, 0xd575b1d23712b4d8U, 0x2b2e29545abe0066U, 0x214a62cc3ab56b19U,
  0x75fe0d8d9fd43feeU, 0xd9dd365e082cb14cU, 0xed324aa4a6710929U, 0xb8aa1f45b11a5ec3U,
  0x5d491db3e68e0b1cU, 0x644dea4a655213a6U, 0x6ca362cac976bc36U, 0xb6be0919e8274645U,
  0xb13fba03023d1d77U, 0xd00a5bbfd007a8b8U, 0x96b63dcbc01542a5U, 0x56b25b2e9036d527U,
  0x4a3ea72edeff17b4U, 0x4e4b54ab3c910d0cU, 0xba25c118cdb7ab74U, 0xbb0b0ccd62250342U,
  0xa854d6473c430a4fU, 0x9e53e1ca4f7567b2U, 0x39581e4e0d26f867U, 0x3bccc98eec4dfb1aU,
  0xd5e002baae2fc5ccU, 0x1c456f3d20034606U, 0x2e2af15db6ffbdb4U, 0x3f72c22dfaf279deU,
  0xc797e9342c695341U, 0x96da0c0ed25a1bc2U, 0x1a5be7ea0925d33fU, 0x9ebe1d7bc21b5abU,
  0x3427f742ed5162dfU, 0xfe56003536462234U, 0x9fdd2e27de200522U, 0xfa4106dec41308adU,
  0xb8a0d04e53e14958U, 0x53e8cb511a7f6e55U, 0x3d1e352ca7aa58a3U, 0xf768e0d0e50c55e4U,
  0x51d50313ac1cc31U, 0x457f9be39f6d070U, 0xfc350edb3aa9b040U, 0xc9714b33cf2ed854U,
  0x28bb55b30c54d1ceU, 0x2b4d4377f8f5173eU, 0x46d2fc353d25d461U, 0x76f163001afe5ffU,
  0x67cc0453331745fbU, 0x30482428f0d3e82fU, 0x33da47135ae3c7f1U, 0xd206b042cf6eaf7U,
  0xf853b4f9da1f2c46U, 0x4c3beafe4aec0a0bU, 0x32b34b9ecccb034U, 0xed72c9131fe2315fU,
  0x36d218d0076ff7f9U, 0xd55a0a45b9c046caU, 0x497dc555fadada0U, 0xb07362f02c5cb3dU,
  0xef2f69eabe37a1baU, 0x1ec0401ae430674bU, 0xe4727647bce752bfU, 0xc806f0d24daf61ecU,
  0x56df2a5ae110e0c9U, 0xe865cea66e47d0f8U, 0xdffcce0ef099423aU, 0x22310b0d514706ddU,
  0xe22b08bd03e236afU, 0x46aacc43ac3f374dU, 0xe84d044c195e9fc0U, 0x3d902c55b0cb8bdU,
  0x235be82a312ce63dU, 0xf5b251b33ef70fc6U, 0x40fcc7ac08aca4a2U, 0xdd27cd25fac85934U,
  0xf54160e3d85e49e6U, 0x3709927f33f6d043U, 0xe81e073e35bab03fU, 0x2cd1012303c3014aU,
  0x796ae6a7d0dae5eaU, 0xefe1ae4104c35d22U, 0x50d01d1feeffd36U, 0x536a5af7c626e148U,
  0xee88ba4ad2c3ac1cU, 0xf2e4d657611d6398U, 0xcc2914b5e66510b1U, 0x73573e56be15523fU,
  0x1db445b2c16e18fcU, 0x1af8af3540a2fef9U, 0x51b460299a36ee1bU, 0xed40ea3928f57ac7U,
  0xc8db4cf2ca130813U, 0x422e077419f85cfaU, 0xbb700ccc28efb112U, 0x3cb917460df40318U,
  0xd8270c5e2aee5eedU, 0xace7ba33cf55c2eaU, 0xbdfab4ef313cefb4U, 0x965acf63f30b3af4U,
  0xa333ac56ede53aabU, 0x1ab93f7b1f0b26bbU, 0xdb02636310fc2a0U, 0x561bbdc9e3113b40U,
  0xf1f5014be0e6d0f5U, 0x3e211042b5390961U, 0x45e83a99fef703c6U, 0xf736664038f43b2eU,
  0xafd4b6c2bf364afaU, 0xd834a950c00ec0c0U, 0x63f1e9f9f1d00193U, 0xa1c68a46cf13610U,
  0x5ecc22f7cc7c342eU, 0x9d72dbd376e9382cU, 0x4d181a950ad8502cU, 0x614bbd74fd631febU,
  0xb3e3c745eb58e8f6U, 0x2bc8504403d0e2f7U, 0x6306cc40cc23b36U, 0xca324662616c675bU,
  0xfecf9bf144fc5ce2U, 0x5a6c1dc70431c753U, 0xa889bcfaba1555f7U, 0xb6c74ec39ab17c33U,
  0x540ab3f07713e254U, 0x23abe57bb82f38deU, 0x61116fbd91e33a9U, 0x5df1acc2db0f483cU,
  0x575b153053bbc7d7U, 0x9a5a6eacf11218fbU, 0x518707edb01ba895U, 0xac70d0cd9c307f3bU,
  0xabfbb91321273424U, 0xe3d234dd4c7ef6f7U, 0xe5e4473a48366513U, 0xd834c733f74d5409U,
  0x72de12dbe8eee62dU, 0xdecd3b085c02262dU, 0xa094d29a0ffffec7U, 0xe5f023f820e20936U,
  0xde4331c70842b45bU, 0xefd0c0f81f1c73ebU, 0xfdcf07e1fcb057e4U, 0x34dffc3ed8b91de5U,
  0x6e1f1e382d5c791cU, 0x37ddf0a6c319c02bU, 0x37894e13a2fb3de4U, 0x481a78b534053239U,
  0x506fd2ce00570e09U, 0xb9b40f56bc392254U, 0x60a23ebad89452d3U, 0x4ce9005c57bfa206U,
  0xbcdfc911282c1207U, 0x5df0c3c10d39b4cU, 0xb225ce6ea11af49dU, 0xdaa4f3c12da4a941U,
  0x32843cddbb4c054U, 0xd3ab1b663c54ce01U, 0xc818d956d118e581U, 0x35b51c40a1cd817U,
  0x9e4baed6ddd02803U, 0xf9a5db301c3eee24U, 0x6de326da140ae2a6U, 0xe4bbde39b847deU,
  0x19a2c4ada81fd61fU, 0x6ffd363b38a4e612U, 0x4d5ad5fe70b90c46U, 0x1d29312e605118feU,
  0x123f22075411dc91U, 0x2df67f048d9ccebU, 0xdd5b8863ac64da38U, 0x33e5eda4dbdff64aU,
  0x1f040cc4cb87f40U, 0x5efc73c3c3d1b5b7U, 0xb31ab4ef0aefc5feU, 0xfdcf600a37a6618cU,
  0x27e31529f972d6b0U, 0xbb25e0b9d2cdd068U, 0xc5108304e8fc45afU, 0x658e353e5d35165U,
  0xf553dbee5b5429fcU, 0xa09423a7412ddedU, 0x292ef6d4c62c2e9fU, 0x9a3b1e3c3213f086U,
  0x39407d0527039b89U, 0x901cc44fae11f301U, 0xec3ca0d8f5ea3d5eU, 0xa7eb01f830d8a53cU,
  0xe064f3a5f9599091U, 0xf3faf8def6ba189dU, 0xf6d4b3e13b94e4f9U, 0x65603d0bc1b7ecb3U,
  0x9d0a023529d40202U, 0x59a2d1d29d16a63fU, 0xe73f2bb560d54637U, 0x90ccf11dd463acd7U,
  0xb21124a804f6918dU, 0x178dfa4e3af2cd1dU, 0x454f1d1aec121cccU, 0x4efb4dd20741ca02U,
  0x59442839d2e91499U, 0x90a0e4e99b1155e9U, 0x920108b013db448dU, 0x9cf1c8a3d40ca35fU,
  0xdbc43726fae5ed9fU, 0x28cb9ab43afba25fU, 0x30b7b50e0174c72fU, 0xe2b5e0ee06e84c35U,
  0xd125e2cd1849ec69U, 0x1d1fd43912d2abacU, 0x179965fadfe8033dU, 0x36e6cc4fa42eefffU,
  0x22ed960e654c59cU, 0x5c27d72ef413ca19U, 0xaf60b463d8f2c305U, 0x6503a2ccaa25c558U,
  0xbb6a1d10a55077fU, 0x1af95936ef6632c0U, 0xf6b029ce3f15d938U, 0x2e12b11543c55d0fU,
  0xf43afe0654d1afd3U, 0xbdf7ae4a1afa3fd3U, 0x9f40463ec7afbe5dU, 0xbcfe73ddc4d907bdU,
  0xfd533a05bd521707U, 0xd2ddc1d0321e435dU, 0xeba74546b4cee802U, 0xc5e24477f2c0dc3fU,
  0xd10cf3b9e436bcbaU, 0x3b3b97f5915ad942U, 0x5dee59f42859cde5U, 0xafc2178c06e62621U,
  0x232dea68e0eeecb1U, 0x88bc1edfd914d6e6U, 0x2ef2ffd2e15f1067U, 0x86a061e5c7575b15U,
  0xe83fdceea0f5d81fU, 0xc22a04f2644ad0baU, 0x862243f9f0ad3ad9U, 0x283e212de8c64999U,
  0x2e03421cce50dad3U, 0xd617981f4be3b18aU, 0x58a0cff1999e97U, 0xb256008f9bf05aecU,
  0x339a888138ffcccdU, 0xd40c410638b11e41U, 0xa107b9955e66c8c2U, 0x92a0f0906e591bdU,
  0xd3aebe96c5362a5aU, 0xa3cae60743812686U, 0x506e34cba6e6cda7U, 0xda1403e0391e4964U,
  0x8b03e05e30145542U, 0xcd950aec21388ddbU, 0x2ef6bff1a3aee44dU, 0xe35cabede18cf186U,
  0x59bfd5e37d3a50eU, 0x415344e01b532390U, 0xa2ec32039fab9099U, 0xf8a02949b10ede24U,
  0xb911d8ceaf2eae4dU, 0x47daf4f229599c25U, 0x83eedde01384066bU, 0x568bb4244834e51cU,
  0xa13261f3ae9f91fbU, 0xe1cce11beba60d2eU, 0x5a625aeaba4bdfffU, 0x4ce861e0a8e3b8fbU,
  0xc6009eff62fb2c5cU, 0x380de8d8d3aa9ae0U, 0xd3cc94e031b23854U, 0xd5a7d2eef82059a5U,
  0x10df1d3447350a14U, 0x37c6d12454959543U, 0x9aac939212aeca2U, 0x18c91ad30ea15e13U,
  0xc744d3675a5ece55U, 0xf7c4fa04a74d3132U, 0xcc9eadbce25c623U, 0x54b11bcd1033afdaU,
  0x702ceee3895b797U, 0xfa37ddec9efb11a5U, 0xb5e74cc8f3d2aeb5U, 0xfbdf99cadd4954a0U,
  0xd45857ade1f8f27fU, 0xd01b47b9534240c0U, 0x1f1260a0ba08c22bU, 0xa9af5c02b8cf3a53U,
  0xf22bebf0f3454eabU, 0xbbba5c44620d00e3U, 0x1f3bcbfcbeec0ee0U, 0xfabca2ead1a9f9e0U,
  0x2fae67c6b29b071dU, 0x3cd703fd06eeb6cdU, 0x4517a1a6c02c5becU, 0x495404f7efc3d1c0U,
  0xe815f59fdc4dbbf4U, 0x63beabebb66513a6U, 0xbfbebfe3f8fed7e8U, 0xfe9ab9a84862e3bcU,
  0x992e59bd03a87913U, 0xf3c4bfdddaca12b9U, 0x6f0da9661fa46defU, 0xfd22fe562f666a28U,
  0x5ebf44f2c422cbb9U, 0xe30ddf2a69ca455bU, 0x1e6f09675d4cb2ffU, 0x4be9f912492b1c2bU,
  0xdf0d1cfb1ef332f4U, 0xfca64d684fdaacebU, 0xfd79e101c80bd4d7U, 0xc40f2e6b4ace59a4U,
  0x45c90408247e7f33U, 0x1b6173d61c19d953U, 0xc6bea9583ab8d494U, 0xdb6c30430319532aU,
  0xf53b46e8ef0d7324U, 0x71a7182ad519b4b2U, 0x5a6c5f1b3113edd7U, 0xc2c4cf00e7363164U,
  0xcbe7fcede44512f8U, 0xec26ffa860edd6baU, 0x51b0d3d6c42837a8U, 0xb8c459e52fb2beefU,
  0xe317eb19790ff13eU, 0x7154b30de5130748U, 0x502e5b2159a81992U, 0xb3ec5d5f18e9fa0cU,
  0xc8364714e56f0ebfU, 0x22c6c00711e928cfU, 0xcf42a8cdf6f3fb0cU, 0x44c64730b0bf1fcaU,
  0xa4c34f26e7f8276bU, 0x400c5a12281acdbdU, 0xdc12dfc4acdf5efaU, 0x2d7b531c0c1fe6a1U,
  0xde4e5233554efd23U, 0xb044c45955cd377eU, 0x22ad3ac559604abbU, 0x4fb4bd6a90c6224U,
  0x1fe9be4b7bf8cfddU, 0xc91d2bc70143cfa9U, 0x6be2f9392558d8f4U, 0xdfdfd8de0c07df15U,
  0x362a220060d86e27U, 0xbfc20ed53203e85aU, 0xbbe42dd4e8b43bb9U, 0xbb74ca38b64a2857U,
  0xb44955e3a3efcdf1U, 0x3875bdf54eac74a6U, 0x2099afaf1483edeU, 0x26d746f334c9b81eU,
  0xaf682f02d547c6d8U, 0x49c539162bc9563aU, 0x637545127ad82476U, 0xb798b1eaace51153U,
  0x420ee1fb1e515d6U, 0x2fdb3f25c4a80b0eU, 0xebeb15f1c4f3243eU, 0x1bd160442e1d131dU,
  0x3508241297234d62U, 0x22bfb0ff41c7ad92U, 0x2d002861fd183441U, 0x2027c95625e5f823U,
  0xb51db801a1c800ffU, 0xe8534fd3decd26adU, 0xc30ad1ff42a63c32U, 0x2ecb112e134b24efU,
  0x1fe9aaa2af563bcbU, 0x991feb2d5c06c413U, 0x575bb832f665c4b5U, 0xefdf9edf1906f542U,
  0xa01437d84f152dd2U, 0xe75d293af3bedcc9U, 0xa2f1494929b84d5fU, 0xea956aad1b52c7bfU,
  0x415e37d03cc14f5eU, 0xd6989c19f3cad9e8U, 0x162652dd613aed1aU, 0x4a3a4739c6d1af51U,
  0x9c1642dfe80e645aU, 0x1be9a627cba214fdU, 0xffe1a142d600e203U, 0x4ac7d8dcb5be2912U,
  0x7a063c4df179747U, 0x30c2e4ea20562628U, 0xf72a4441577f4f9aU, 0x1525c5d964b5e302U,
  0xe092661d87e5c98U, 0xaefe86b3f1f15731U, 0xeeb9d6663cf43ddbU, 0xa5ff46d5f1949d8aU,
  0xc7aede4b873a5108U, 0x658dc43cc641a0c8U, 0xd25631b3f62692e8U, 0xd3cd5abc9516e7c4U,
  0x84b8587f45698734U, 0xd73d335d41e32c0aU, 0xf913372abe61ffbbU, 0x4931e20b17bbc76dU,
  0x27ae9efa1b9f3c5bU, 0xfb21cdc95c9e55f2U, 0x6e6c226205f8a549U, 0x553f2913c4ea25dfU,
  0xfccf6df41f238432U, 0x9544bfbe141258a8U, 0xc1f82d065e19fed9U, 0x8b0f0fc324dc835fU,
  0x3b83f0c5f9199ac8U, 0xa5adc7c19895d868U, 0xaea4d60fdd1d88d9U, 0xac4aadf4cb4496f8U,
  0xe521900fd1f11edU, 0x46d8f6b48c39bb29U, 0x31319fc3216544f5U, 0xd49832bfe28c2d71U,
  0x1af682ec4f1e3b45U, 0xce0ad8939cc8c0c0U, 0x7187252ee741f722U, 0x4166d7a105e20187U,
  0xf8501f2445e82d5bU, 0xd2cee0c4fe4bf012U, 0x9013672f8b298c3cU, 0xcde0873df9b7531bU,
  0x5a1c62f436d41291U, 0xa3f90ebe8c065d8bU, 0x2bf488d3b9a847ebU, 0xaadf3f88654142c3U,
  0x2d2af4345f0cfac2U, 0xa02a2f73385ae225U, 0xdc0b10ff1f5bd5e4U, 0xf2fa1bb3954e313U,
  0xb9e7b6db343d510bU, 0x1d04cead313d322dU, 0xf9b01c1cceed9efU, 0x5958d03ae2c5570fU,
  0xea1c6e2ffd1c520U, 0x4ff5c126e9e72afdU, 0xec1dd1d842e027e0U, 0xbb1de607f25c591bU,
  0x2beb0ce4d8fb2df9U, 0x50ffb2f7e2b84c4dU, 0xbe62054f42faab6U, 0x3ee43d2241fe02c9U,
  0x57b71f9e3759e2d1U, 0xf80aad43077fb83eU, 0x46e7bd140b0528d5U, 0xfdfeb3c6b0af0215U,
  0x2e36d73a2a4145ecU, 0x535ae11cc75351b8U, 0xc2b0bac31ab940d5U, 0xf2e5224aea29b6aeU,
  0x48042d9ed86e0a2bU, 0xb0ca0cc125df4b59U, 0xb14eadadbc55ae43U, 0xb73adb38da100000U,
  0x443cb037b328a9c5U, 0x50e50337cf51df00U, 0x44321f2ef9462b02U, 0xdb24aac019b4f0d7U,
  0xe228e2f42cc5a756U, 0xa82baac75a0bddccU, 0x2de2dbbd970a22d1U, 0x42f5474a15b35942U,
  0x2921bfd33215e760U, 0x1baacdc7ed4949f4U, 0xdd07a90b234a3dddU, 0x46222ba5e8b8061cU,
  0x2d76a754bc3cf003U, 0xb2e5e735f7ccd416U, 0x87a60b31454f8e2fU, 0x1fdde4e26125a516U,
  0x3b60aec3f5022185U, 0x123a9b22c0f54096U, 0xed441089ef284de0U, 0xbc409edc0ff6f9abU,
  0xa65cd34091345c34U, 0x2e1c9ab58aad040cU, 0x183213d33e01956eU, 0x8a9325c1c2580864U,
  0x360ee4bdce8b5493U, 0x4892fc0dfbb5d2c5U, 0xff4bba6115e3dd41U, 0xa5830a3da2530fdU,
  0x58e6b4ddb323a209U, 0xd80dc12114b03f2aU, 0x3d9cd925f214e72dU, 0x5bd53e53b99fdff9U,
  0x40b647168d2155e7U, 0xaf61ceebbbb3e2e0U, 0xc8f1518a10940933U, 0xe6cb1fc9deac488eU,
  0x205d32ae23e86644U, 0xa7e5aa08fd9f64efU, 0x25b1eedd0cbc23f0U, 0x3500f91718a6d4ccU,
  0x3e94102cf134dcc2U, 0x8606d211fe9a233cU, 0xa5e7b58b696ca6d5U, 0xe5feb4fb31606244U,
  0xd0f44277e581adb1U, 0x6aecd5482b14a494U, 0x5170e0cc74a6824U, 0xdb233709f6011fabU,
  0x31d294fabefee4aU, 0xa1e1100f861741e8U, 0x62b3c83062ee5f67U, 0xa5c236c692a95723U,
  0xbb49386a5cf323d8U, 0x9deaafcb25fecb8fU, 0x653ef5dd104de708U, 0x7ffa413b94b70006U,
  0x31ec9b53f43151fcU, 0x51e1049361e62d6U, 0xb512f9a61dc1032cU, 0x8ae6cbf3fd360c51U,
  0xc0c3c66362c6b5d4U, 0x2e2cfcc40434b6a6U, 0x4547f43d1934b5b0U, 0xecd71e4a37ebb2U,
  0x65ef401bbf23fd55U, 0x86e643cb746634fU, 0xf1e3be315420923bU, 0xfa2bc1e3c1201daaU,
  0xc3f2bdab59d0b6fdU, 0x1a43d666c6013a46U, 0xe543513bcac4e92eU, 0xe01715d8ff35305dU,
  0x1cb0a5159132bdd8U, 0x3272e51df98b0606U, 0x11bc3ebd56e9171dU, 0xf82bcf1833d72eedU,
  0xa80912a7bd610c0cU, 0x17b440de3ecf014dU, 0xdf43e2bf9b08f749U, 0x3905f9dfd4c41035U,
  0xc625c0d7dc1e446eU, 0xfc682902d3a219f1U, 0x24d5759ed5dddb48U, 0xad4cb75fa2b4d215U,
  0x1ecbcf180fcee905U, 0xce9dbf2c08eb3f50U, 0xbdcf1fd5930ea400U, 0x2b4708d02ac41cf2U,
  0xec58f71545dce0c1U, 0x9ff23d1d43aee20cU, 0xb3e9253d280c01a5U, 0xb4ebf4e707e9374bU,
  0xc44ce1f1c1a436cdU, 0xff52d84b12204847U, 0x2130ed36ff3abedfU, 0x151847202956ec20U,
  0xd45408ddaa580ff3U, 0xb308b6525b1563dbU, 0xeb7501644c2cbafdU, 0x9daac424ea9ffd79U,
  0x5705bc5944bc7f9aU, 0xfd7b8e6ad1bf02eU, 0x1163c94d5409b0bfU, 0xf2123e06f763f01aU,
  0x28d559e00e2d9716U, 0x4199b6046e724ad7U, 0xbe3314241f19a11eU, 0xe307fd51be1a1a26U,
  0x41d6342c294a7401U, 0xd05ebafde4eab9b5U, 0xc2ee22a8510517ebU, 0x1825fd07b206ccbaU,
  0x9efc6999f471b597U, 0x9ad5b4ca0cde27faU, 0x1efcdf5e09cf3845U, 0x604b75eca0ba41fU,
  0x18061b2238c959a6U, 0xd505ff4803a0c68cU, 0xe55fbc4730eae5c2U, 0x17c2ea7732f0df05U,
  0x163b79af60da6f9U, 0x3b9e36275ff5f7a0U, 0x5a48b12a6665ccb6U, 0xc919ed3cd94e002fU,
  0x16c069d6dda5d8d0U, 0x58b4391a453f4eb7U, 0xd0fef6fac9311237U, 0xd4e8346a711d6402U,
  0xd445b5cd1f241ebcU, 0x59d0e8d06b14520aU, 0x4dddb8f139051b40U, 0x3793dbf8450c9924U,
  0x6a59cab22ef62e51U, 0xc8e2c4df45ecb117U, 0xcb3af7705ee4d43aU, 0x5200e3dff73048U,
  0xd9e54e1f4e2321c0U, 0xcbf0e2aef37276a9U, 0xbd3ede3c75b9e067U, 0x1bf0c7426052fa20U,
  0xc6a223dbafdd025dU, 0xd0ba23cbceda0bb0U, 0xe4ca22c8bb2f40b6U, 0x1473df47b0221f26U,
  0x2ea32c34d535d163U, 0x1707b5640de862c8U, 0x55c5c02efb6a59ffU, 0xb31206740526b9acU,
  0x67e6e3f05e0ad501U, 0x126604280f542142U, 0x6d0d0163f8bfc9ebU, 0x37622cf205ba5313U,
  0xf34051a8a82df67fU, 0x6cdc1a2e674df2d7U, 0x63831d4654f7931U, 0x2aae3541eccbf066U,
  0x4ad56934317048dfU, 0xd7240d496fd20deeU, 0x32f2495d16441e09U, 0xf83ee4e7a72acee3U,
  0x30fb1f56b6226058U, 0x4ae21307bd5d29e5U, 0xdf134de15a50acccU, 0xd332dd5544241a70U,
  0x311c5fc2e8e0f6b1U, 0x326ce714b4da023cU, 0x2138db0d001dd1c1U, 0x2bfe04d64cd34bc9U,
  0x5e06bf4b0dac5bd0U, 0xae64d40f27ddf102U, 0x471bbc1a66cc4c4aU, 0xcd1608dad34de133U,
  0xd5453e075c3d9650U, 0xe526e6d241c54d47U, 0xb1c32e74bcd74adcU, 0x705430c3c63cdfc6U,
  0x6a6b030e91fbe7eU, 0xacfe451516d4f128U, 0x4ed9c227bccb64c9U, 0x1a1afa4ce33b25e7U,
  0x56f0d9d329d91d38U, 0xc946f2fcd0ddf8c2U, 0x715113a1deb0a60U, 0x31fbb801f6ea5224U,
  0xdb4c1c0c815bb7fU, 0x6d7164b09d38f6e7U, 0xe2f037049801e9bdU, 0x5c15fdb20d79f1acU,
  0xe0f044202d5d11dcU, 0x20eef8f1d31acd43U, 0xd44ed5e1ebc21936U, 0xff47910e3512e8bcU,
  0x24d1f3d628f22d1aU, 0xdfbd0b0d5e1a934U, 0x4e446f60fb17b8b8U, 0x4fc0f8683f6b1d19U,
  0x47d224dafa7ad5d4U, 0x9da27562d670e70eU, 0x1eb47631d4eda86fU, 0x6c261ec19d47e5afU,
  0xba31cb8d795ba49U, 0xe61bd71f032b29d4U, 0x429f025baed56dabU, 0x495acb204dd1e9caU,
  0xdc201139de63be22U, 0xff405d6cbf34ab75U, 0xb6f06c23e1f442edU, 0x2a2c159a3b3eda0bU,
  0x7cb7cff921bef374U, 0x146b620707d5e6b1U, 0x479c67a2ff03ca1eU, 0xd0ff2a080f24bb44U,
  0x4ea8e2d3ea10fa65U, 0x84c4c72fd0e7c33eU, 0x7d671c2719bae6U, 0xea69b220d8114d31U,
  0x603ce028d1dc5ffdU, 0x3bedd5e43aa5270eU, 0xae0be2a8c7cce007U, 0xce406a13edd3bdf3U,
  0x45e0b1c26963cb16U, 0x9b4aaec7f75ef139U, 0xda54c43aae5ce773U, 0x7a66b5d535455ecaU,
  0xdd1e895c0330ed42U, 0x496f3cfebeb7c044U, 0xb946fce5f5cadc0cU, 0x436611968dd6c2cU,
  0xb7a7f90d017d11b5U, 0xf63e0742be183fc2U, 0xb47b37e1ff141edbU, 0x440cea5d1243b19U,
  0x5d0e219623a0350U, 0xea5a00c7310658c4U, 0xbad0bfa3bd3b16d2U, 0x6fca046b02ba40beU,
  0x2b81e537f1f72dcaU, 0x95c5f8e535ea26b0U, 0x4f734df3e5023652U, 0xd62337bee4db6fa7U,
  0x1fcaad783d355a03U, 0x6777129f59d3b80eU, 0x43a265f528c8cc52U, 0x31062169c0e31916U,
  0xdc3d040b2672fdb7U, 0xb508e8737cda27f6U, 0xefee1dd78c52d3fcU, 0x6c151316d83c3817U,
  0xc715ee3c28b91937U, 0xda7a5e3bd6a6c9e5U, 0xcec5728ef934f7afU, 0x13d7de120854e328U,
  0x545919d9199e40f2U, 0xda463728072aafebU, 0xf99bd762fc0f3b6eU, 0x43be674835c2f868U,
  0x1cd30e52139cb5e9U, 0x314a1540b94139d9U, 0x5f7014e5d61254d3U, 0x431725081dc4e401U,
  0x3a4fb4b0bedaf7f1U, 0xcefabc3a0ab3074eU, 0xd652e92838eb66b9U, 0x2dc6daef6cb828c4U,
  0x7e1d67f2aaab024U, 0xdf4e32b0b7d3e943U, 0xef27c9ddee4abbc6U, 0x1fe0b3f44916b4f9U,
  0x1f411a5039ccef3aU, 0x41125e9ff8e7b5ccU, 0x3b96c84e1d184d5dU, 0x3214e4f8cfedb663U,
  0x933b25e1574657cbU, 0x5a6a61c93200f907U, 0xd6a6cc5330e3825U, 0x7f2f64aeef0ab71U,
  0xdc0ad8b406395cd0U, 0xe650e61c39e005e1U, 0x4ad0221af5425e55U, 0x1fb0d5ef3c1cd0b8U,
  0xbd5e0215cc9e395dU, 0x5133f5fd3052d26U, 0xc05f320f230635f7U, 0xff3333e21a4ec74aU,
  0xf6d9c716b0936a49U, 0x334e59bcc8113a71U, 0x3701ccf0ce36ce65U, 0x143a57ec3a3a1515U,
  0xc84b0c0d090e5c4bU, 0x602dd5233d182864U, 0xf071d3cbff6f5714U, 0xda5948f31c03ae07U,
  0x33822e27ad402f5aU, 0x2469e20461f85d75U, 0x8657bc416eb362eU, 0x7ae061bcde1fbe58U,
  0xd546f1ecfae1be24U, 0x2948d1dac70cebccU, 0x154db96a216f54a7U, 0x7cb2064f7f4ebf0dU,
  0xcbccb91304ee4cc9U, 0xf2f723542e1d467eU, 0xcf1fec35cdc00adaU, 0xbe316310f01691f6U,
  0x4cf525de5dd844cbU, 0xaead6c05bce6182fU, 0xbf0ec22bde6b444dU, 0xeb663e2647341534U,
  0xbfa56ab0b8d11da7U, 0x87413266ffb1a70U, 0x1128bfecb00c6f38U, 0x3e75ec8f16f944fcU,
  0x1bf6394d10cfde1fU, 0x536de23cb8144214U, 0xf2db5f66932fb055U, 0xfcd3fd427a29b0dcU,
  0xb10cfe87bd052cddU, 0x19c27c3fed6243bdU, 0x6ac7d4e337e04c70U, 0x51c7d5a3ed43c447U,
  0xb36e7348b58a6779U, 0x7144f004175ff4baU, 0x1e623c78a103b13cU, 0x4368cdfd1f23692cU,
  0x1beff032276e6712U, 0x8ac1cce9bf7d4540U, 0x5b2e665377d16648U, 0x6777eaa304f8ea18U,
  0x7919d57329343cf1U, 0x75f66fc03cf8bfefU, 0x58e4c1eaec1a3a31U, 0x7a4bcffac1b06ae5U,
  0x2e154093522a3ad8U, 0x12955fdfd9c93267U, 0xf545fadfb066f8d9U, 0x13fc373eeb1651ffU,
  0xfe6bd34ec529e016U, 0x445a2edccc4dd551U, 0x9bdbef32fdc51795U, 0x5ce37c455c42ee7U,
  0x399151a67c6518d1U, 0xa590390e31ffd70aU, 0x6dda5f1c9c2e084cU, 0x225bbb1ae6242a16U,
  0x67c012ef0bd3467aU, 0xd55d4b51e1cd15c1U, 0xf8bbafeaacf84dU, 0xddf07f52bc5b3adeU,
  0xe2b7fe141a64bfd6U, 0xc8ba69cdd0196dfcU, 0xea355450cfb229c0U, 0x47da3ea06c240dbcU,
  0x480d1921eaba43f2U, 0x2957622dd06df8caU, 0xd6c2c41b3aa9bf9cU, 0xbf2d31f1e5f4c4ecU,
  0xedabfca22b4ae3dcU, 0x51e25b140335efbbU, 0xc96cf504d1d80b46U, 0xc1ebdfaec23b56fbU,
  0x5545e51c06c4c2c1U, 0xc2df4bc4064e1c76U, 0x9c3328d59ea6382cU, 0x544f4245cf1b15d8U,
  0x4f3a60431f6c0fc7U, 0xf897c50a15ec6a6cU, 0x2065e0183a1769d5U, 0x23d5c94c2f0f3ab7U,
  0x1421342576d952ddU, 0x564aef25de5fffd0U, 0x9d91cc1ae5b82f35U, 0x367e8d8095b2912U,
  0xb9a18bdcb33dafacU, 0xb062ba0c1d63244dU, 0x88b1df724a425d5U, 0x57fcd12fe9562158U,
  0x85941db19249401cU, 0x17cf359aa097bf6eU, 0x43a24fbbac2f1bccU, 0xec1d0219da350a0bU,
  0xfea242ed0cb6a400U, 0xadac68c69995818aU, 0xa1fc115e8741e85eU, 0xc9db5c2ecf23e955U,
  0xce4cc46ec3fe9d8aU, 0x9ca24a88a3fe1ca1U, 0x8695c6d2e6314b9cU, 0xb64385c2b31749fbU,
  0x3983d8c5bcdeeeaU, 0x664823f830df4393U, 0x810a1b60d2338f2aU, 0x63625f2083cd68deU,
  0x481556611cdd6c7U, 0x6894d33dbdb46239U, 0x31dce9b710b5215fU, 0xeac03ce964e2854cU,
  0xdc48ffe4cfe55611U, 0x69cd92d4ddeb2a0cU, 0x9bc0c6c603105dc0U, 0x88f9d45b8910ce01U,
  0x1cab35d1c5cf3302U, 0x121dddade668e4ebU, 0xf6c5d48245259318U, 0x8d3cf39947253068U,
  0x634d8b557a911c6U, 0xf4f23ffd55fd0ae2U, 0xba622d299d48a48fU, 0x8c2486c9f124bfb2U,
  0x8dbeb49657422caaU, 0x283b57638734d7e4U, 0x4edca0e98867f7fcU, 0x6542e37ddff47a4U,
  0xf70f245de25ac9e7U, 0xe1309cfd85c0d1c3U, 0xba1da1e06f12216U, 0x3fdaba0cbd8b0b90U,
  0x66170e264185121dU, 0xc99ad2c18d13d594U, 0xc96edffbab03ecdfU, 0xbb3fc1d2c9345836U,
  0xadc4b29491f0018bU, 0x29da48547c309c2U, 0xbf0901cdb559e1d0U, 0xddadc0fc585c5996U,
  0x919167c616193638U, 0x2cf5002a164ee6caU, 0x298f4f66c5dd99d9U, 0x23939185cba652abU,
  0x83a269502e00c8c7U, 0xe2a8ce061efd29a7U, 0xee6134444c068394U, 0xd267663fc65a65d1U,
  0x15093eabb5e9d6a5U, 0xdcdd27f06181360fU, 0x4159fb1e9bb93842U, 0x3093c36bb2fceeabU,
  0x175e1485b0442143U, 0xfd583d1820a3e222U, 0xfecd9b35dc1bc0fdU, 0x5964eca5d10ab128U,
  0xa1e81a4d5521c284U, 0x1b249b84ccb53a29U, 0xa8008df7ef63dc39U, 0xace7bfc36884cf2dU,
  0x5cf1269127540985U, 0xf4686127c8c80ff7U, 0x1cf00f8d0499c7c8U, 0xd7ece505a2d39be1U,
  0x4ad43355f90ae617U, 0x292e041e891f4e3eU, 0x95402e3cd929ca60U, 0x45fac4ef4d4e0698U,
  0xeb4fee35ee324c5U, 0xf0b10f1df9f44dc7U, 0xfd014ea843cd20bcU, 0x1d4e09264e34460dU,
  0xbfc5f7b9c96f2e69U, 0xf4c2aaddd0df50e4U, 0x1dfee4b543d4c5a0U, 0xad1ffde52fe302e4U,
  0xe0e91635c3bba111U, 0x261a132b554e1d02U, 0xf64d364c13efa7f1U, 0x713e35e2f2c66ab3U,
  0xc61ee1aafd14a57aU, 0xaf0e9c4dcf19f20fU, 0x9f253c8ed31b24abU, 0x81c5106e88a8e219U,
  0xc1fa66de363f29a0U, 0xa491cdb9fa37693aU, 0x674850fcdb2ae450U, 0x334e5be03012e426U,
  0xddabda2c296e3612U, 0x176d9fc41bd6bbcfU, 0xed48f0d755b721c1U, 0x1a5f002208e44b35U,
  0x9eff14c8c2008a36U, 0x934c134ea18fa4fU, 0xc61ed0bbfc313142U, 0xbec0ed502b62b22U,
  0x4d002713951fc5d5U, 0x2b62b90f01f80ae5U, 0x3095dcc913439616U, 0x2da7d91e9d2e0e29U,
  0x42f55a23c96013bdU, 0xda2391be3d6372efU, 0xdc0ade560dcb92f9U, 0x7f43241917ccd651U,
  0x6ef854225476644U, 0x2d4d132367a8adefU, 0xeec3cde0a0ea1c39U, 0x9c4e0937570963cdU,
  0xd44822175f3d6b2fU, 0x3ce91950c1dc51cdU, 0x4354d200224ead00U, 0x80025f56bf41e0cU,
  0x6431c210196c5ffdU, 0xe565332a245d50b8U, 0xc190f2c05f26f760U, 0xdc0bf3d60c92750fU,
  0xa7c2fd0bdd3d64baU, 0x35bd386a26e8e61eU, 0xddd63437e2c34393U, 0x1d43794044ef162dU,
  0x12282834e7441df4U, 0xf9ff13234057149bU, 0x2b08c2d40f4e20e4U, 0xd5f9230f0aace9ffU,
  0x61c2eb4b7ae1f3d8U, 0x3d0ab95cece24111U, 0xf2f1e7e7e424e5a5U, 0xc13e5e5f0153bc18U,
  0xfc751bc8d5564b1cU, 0x50427dc6b173302U, 0xaaab53bef1db2c47U, 0xe05b1316c80c5fe6U,
  0xa829ef1d1dd1f700U, 0x47bc2b3db64c3a91U, 0xede1c6b7f224adfbU, 0xbbf75d74e443fe46U,
  0x7a7f4507acd1d057U, 0x3a68cfc33f35d5b8U, 0x481bc03e23de00f8U, 0x9650614b99e1cfceU,
  0xc5ef5b0ccd6c27f7U, 0xcd192104263033caU, 0xd0394ab752ee14e7U, 0x710e1823570fc851U,
  0xe2ccd405d02d6fe7U, 0xadb6100c156b0d53U, 0x602efcb2e9c7b63eU, 0x41cd7b4dd1b7f631U,
  0x3c5891e90d50bfe6U, 0xbd906c4782a6a9d5U, 0xf196eb4227630e48U, 0xe69db6ff5abae3a0U,
  0xe532b64fbf8bd24dU, 0xcb9a6543023963a6U, 0x5fa6de40cadd2f6fU, 0xbf6fdc2404ea5b90U,
  0xa94407c083309c5dU, 0x144bff41be29434eU, 0xe3434bab44736bbU, 0xc0a9ed8f26ff5c2fU,
  0xef8a3dd7cbb93e91U, 0x9c4fe68bf80e61d1U, 0xd34ecb57214320f4U, 0xc8f3c98a6770ee9dU,
  0x2ff2703c562ef3baU, 0x49d96a16300c218U, 0x90cba58e6a616905U, 0x643b3590314a430bU,
  0xf8e7c5345ed7fac7U, 0x16ce00f2a1df9c6cU, 0x40b34ed999898797U, 0x2a89b00d01854023U,
  0xfd54184291c49308U, 0xf8fc11135a85dcbU, 0xbfc2fe0589c8fb1eU, 0x4bea4b658e11dc92U,
  0x99490d0e48c8538eU, 0x18ee8f1b98f9fecU, 0x22ba2650090920daU, 0x216eee01078a21afU,
  0x76592490da3b4f6U, 0xf3f99fff32e3609fU, 0x34493e9eefa56bfcU, 0xc483822b2c09b72aU,
  0x578a3233c7bbf70dU, 0x459c3508892ea656U, 0x84ebe6be5a4149faU, 0x380df181c8056627U,
  0x4bbb00b051293424U, 0x2620467dc60c5628U, 0x43c154e65b1a4062U, 0x6d58e85fd7e31e53U,
  0xe04305743e5440e6U, 0xb8bd23fc07bbf1f6U, 0x3ab80359fa50dbdeU, 0x5bebd300e44b763eU,
  0x48e845b058601cb4U, 0xb5d6050c5b6bd25fU, 0xcbddfc43b5c9e24dU, 0x1f312a3b39d61ca5U,
  0x163864ef2d4c5a61U, 0x3d55bd060601500aU, 0x2916f551f34e2237U, 0x38e11f5cce45fa0fU,
  0xd838e7d9ec7f3f0cU, 0xb6cedd38d206dc54U, 0x1dc1dde6034749c7U, 0xf1fcaed843174ae2U,
  0x59f534eaf5fe1dcaU, 0xb528461c202b09e0U, 0xe4ba1238e41e3326U, 0x666d2110ef8f2f5U,
  0x58b84cbc4c27f9bdU, 0xec56f736e354c67U, 0x1febf6384409c5d9U, 0xf5c32e2f3dbd5ddcU,
  0x64df5ae6090fe5b1U, 0xd2473014c95a0009U, 0xf209e142fdc22ee7U, 0x3d3c2dcf3e1a78e5U,
  0x908db440ce8f919U, 0x27fb0c3648cdf0d0U, 0xea56e5d9d621ccbaU, 0xbc0454d62cfaf531U,
  0xf170b4edf648055dU, 0xf618421022d8f4efU, 0xc0c948f82646023aU, 0x105470f3ee06d24dU,
  0xe1d1e399b96afad8U, 0xb9bceee9daf7b952U, 0x185c0bbdee3e0f71U, 0x58473aeaedcadcd0U,
  0x453cef4c15126c34U, 0x30b84223c034ec1eU, 0x36d33336cc2e0bf2U, 0x266b25bfd4d73765U,
  0xabafa63bc56e290eU, 0x481417f24dd93e1fU, 0x24c052fff4d220d2U, 0xb818eab64fe4d216U,
  0x1d3a04032bb9ddbbU, 0xfb5e614652035062U, 0x3e30466608243ba6U, 0x562c6e3b5d57756cU,
  0x6983dd234af3fbd8U, 0x49542b7f457a583bU, 0xd6624915cbefec0bU, 0x441ac0d5ee032318U,
  0xd46725ee303514b5U, 0xca71b408ce5da552U, 0xbaacfb1bc5e04ebbU, 0x1916354a17efe05dU,
  0x38bb30d83cc6e90cU, 0x1443d9ead8c70ffdU, 0x2b6027c948b6ddc5U, 0x501b10b7ce52d4dbU,
  0x16cbb75043b833f1U, 0xb7e9b617ec75ad61U, 0x60e4c41202cb534U, 0xf200e3591f0dca32U,
  0xb5e8502071670f49U, 0x9cf1e4faf963f6edU, 0x80eee6c1d283ae1U, 0x5e0ca5a6552808c4U,
  0x77fb2cd5fa13403fU, 0xbe235ccaf73ae976U, 0x3e0a172832b407e2U, 0x67c1e96531566741U,
  0x1e13c949c1a860e5U, 0xecf2e205b71650fbU, 0xf310e455744a67e5U, 0x373b403f104f33ccU,
  0xa52e451ff7e7c54aU, 0x2e5019d314c6701fU, 0xff5bcc68ce52d7c0U, 0x243ab8b5eb2b3751U,
  0xd03e6603d73856d6U, 0xce1fc790b4e63b68U, 0xcc6e6cf2e0d3b6bU, 0x3cc184363df621cU,
  0xb1e74ef2c8001db4U, 0xddb5e2e5ae432660U, 0x3e040c0ccb67d448U, 0xccad032c54189c50U,
  0xc62c4cf93c0be82fU, 0x4606c1c6bd07fdd5U, 0x4ecec5e07fa8fefaU, 0xa54aeffb4758c55fU,
  0x40173ec4e6f5aa2fU, 0xd450ee3cbecd5738U, 0xdbeed4144ce3404cU, 0x42243232671d41f8U,
  0x4df95b54a11023a2U, 0x4822edc8aa04204eU, 0xe5daa6f4fdd46954U, 0xbbabddc217051d4eU,
  0x2d431ae518f742U, 0xb8f2c6d6331bdcc6U, 0x5f453800115b10f4U, 0xdc49f4f453fa2245U,
  0x514bc3433efa35b4U, 0x6f56edcc15c44502U, 0x3429d139ffde603fU, 0xa8ece9ff09bbd018U,
  0xaa49423e0967afdfU, 0x1c4329f14a0e2bfaU, 0xf1c6b5fae14206b6U, 0xdcb3ef61b54ca56cU,
  0x6b800a536a5b610U, 0x3830b9b363c75635U, 0x385bc8161165ceedU, 0x2718b63646f3ad9dU,
  0x62b24b38ec63f39fU, 0x4b0d35ea2966a23U, 0x16ce1cff3a59e2e5U, 0xc4f03e67ae05bb3bU,
  0x62380fd6874a991aU, 0xd5190642ee321bc5U, 0x2aecfcf6e5ead3d4U, 0x538e1e38f1171d71U,
  0x129dcc02e2be07a5U, 0x84529fef2d3fd618U, 0x38e55303094f4be4U, 0x99bee33ac6e9999fU,
  0x430a31020f9ff0a6U, 0x3d37a308df9bef36U, 0xb0d78bd8d62467f8U, 0x23e31abb112ad7f0U,
  0x993a9bb2c3a3cb28U, 0xa63ffc9d270407acU, 0xb71e36036d5a32d3U, 0x1c45aa9fecb419afU,
  0xc09d1cedd8d795b8U, 0xf0649a71965396a8U, 0x28e4085fb5f8004dU, 0x3669f39a8dc6b4efU,
  0xcc94a081843015ccU, 0xfc01dabd21372314U, 0x361998cb984ecebeU, 0xe5fd9498f5fed8aU,
  0x34f3d006e6eb00c4U, 0xb5f3426dd21473ccU, 0x4a616996fce4c5b0U, 0x2b90cbd2fd1ebdc2U,
  0x1d905d8bd6b11f13U, 0xb2fb4f9947fc153bU, 0x415edb0b479ca2b4U, 0xa2624444cf1a669dU,
  0xcf4be65cdfebf850U, 0x5a6735b01ea7c049U, 0x193a1972093c48f5U, 0x39c8edd8f349c6ebU,
  0xfe661164494fb7f3U, 0xf80d054ae949ffc1U, 0xe46dc62be07ae64aU, 0x24f2e9c128c6a3eeU,
  0xdc032028bbd43af4U, 0x606e288ab3c7e072U, 0xcc53f11f34dbbf71U, 0x1c44dc63e21e141U,
  0xb9da32c6385b41d3U, 0xbc4061b4d3283742U, 0x5552cb5ae1713a57U, 0x8aeb2ab55231548U,
  0xe16ce0d9f535edd8U, 0xdadafa2a5eda4f3eU, 0x40db0db941144c09U, 0x26dd131921b916d8U,
  0xca0cdc70b8d63906U, 0x3d2901d4ca700a17U, 0x433ddf54742d5bc0U, 0xc8afc34523ea1469U,
  0x2e5a6008e94ac8fcU, 0xdffc46a129ab4d6dU, 0x1a055db6c5a6227U, 0xdab6d83a4bc836ccU,
  0xe6d4eabedd5ac861U, 0x4fe2c5e1c548fb15U, 0xd1304b08dce6cab5U, 0xecddc32ffcf39f36U,
  0xcc4b4c28c995d858U, 0xc2faee26b7d8f806U, 0xf450c635223e073cU, 0x1c22bf16dcbbe44U,
  0x99174f59f9f7522bU, 0xc8b6b9e226ff3c3eU, 0xe6f08db197f21d8U, 0xd0cbd2eef900a150U,
  0xc8d3af4efd4fcc22U, 0x21e6edf1dc654dadU, 0x10462b358dfe211dU, 0x122d4b31a65cf6f0U,
  0x36a09414d91afbebU, 0x70b2bbc0aa49f26U, 0x3d163c09c8833529U, 0x1f9f2a3efdba51daU,
  0x27fdd435fec61e10U, 0x8a14bd64dd753c40U, 0xa8d3624684b33834U, 0x5c4096949436570bU,
  0x4d0f91cbef17bfd2U, 0x27d8fb1a44beacffU, 0xec9f6fbd90f7c6caU, 0x512eff24e9ef920U,
  0xcafc420b2bf9a22bU, 0x21afe6034a31dce3U, 0xf97455c0d12fed1dU, 0x67cf35cbbf41e73aU,
  0x5a0c043bceec100eU, 0xa20ef51617e201ebU, 0x18da4fa40130201cU, 0xe2b37673ce8cf2dU,
  0xf39313bdde49b0e5U, 0x23e80203386c34cbU, 0xb35271ccf0692b41U, 0x5c10bbdb29cd1ba0U,
  0x73102cfcfd33be00U, 0x21bb054b1a203d10U, 0xb7b616c1bbcdacebU, 0x272a462a9f2c09e7U,
  0x9add31bcfce72dc9U, 0x4009e4fac0700a0eU, 0x1745de3199e7b7a0U, 0x43c948b410412c54U,
  0x43bae3cfae2c2e2eU, 0xe3c3fe081e10ede6U, 0xb78a5d89b081afecU, 0xa11f26ebb123d2d1U,
  0x1a09ece896232d18U, 0xcdb4e9c9bc0a0c98U, 0x40e8072ab9e52123U, 0x8c074e20494b54d5U,
  0xa6be3513e33418f3U, 0xb3bcfab0cdd6fa0bU, 0x160100c3674eb7d4U, 0x4e3c0851c301b26dU,
  0x6666b34cfa0d5ff7U, 0x7a43d29c3a0d4c32U, 0xe41fff52170143a7U, 0x9adf6a5f2dca072aU,
  0x18253cbdbdced4fbU, 0x58a95d10a2ed544cU, 0x1c570344dd2deb4dU, 0xbcb93af644a02f4fU,
  0xd557c64e2f97399aU, 0x76d91c38e0cf1e9U, 0x4beb01d668aaa2c3U, 0xadf91cb65612f64aU,
  0xc23e23e3b83cc0a2U, 0xce182e5e0d69fa1aU, 0xf8054143626ed11bU, 0x2dfa2d249f070fc5U,
  0x603de3a4cb85120U, 0xe5f524310b39ed01U, 0xe9feb5e42d4600a1U, 0x4abfd714fb024005U,
  0x141754c50cb039f1U, 0xd8e21024a509ffb8U, 0xffeabb37f470755U, 0xcca52c1c48299a1bU,
  0xaac95d09f69023b6U, 0x2265a786c21a0ecbU, 0xb8d6cab3e43b46b0U, 0x9e3d48c9e9fe4acaU,
  0xe7e7d7b4efb99dd3U, 0xb29ac9435bc5cb87U, 0x40306124023bfeb8U, 0xb0a14b28f7bafb15U,
  0xea55cb5cd9eb6cdfU, 0x2c17e6920b8f355dU, 0x63a408e663286618U, 0xa1d4595f1821470fU,
  0xef61c6f3c045ef3fU, 0xa35c7fbda23c4bbU, 0x4f690c68f6d04141U, 0xc73acf530ecf923dU,
  0x305eca52f91ae9f9U, 0x70be1bca9e00d756U, 0x27c7b0064cee55cdU, 0xfeec3f27d9341f28U,
  0xf7c24fdcb3d42149U, 0xbd46c2f258283220U, 0xe4f8e16960f2dc06U, 0xf6dc4c0c55d63430U,
  0xc44b5d663b1c57d8U, 0x223fc9cf43c9e3f7U, 0xcc34233723ce04beU, 0x9024f5c84ecfcbceU,
  0x145d5217bf0d4cadU, 0x1dff31e749172226U, 0x64b3303557cebf5U, 0xe19db2bce09bab14U,
  0x10fd561419e51db8U, 0xf9653ec1dda547ddU, 0x7a44525eb41ebb7U, 0x30d4ef0b31e818c2U,
  0xd217f920575ae3beU, 0xf9b9db46c4654112U, 0xd9e84e67093dcef8U, 0xa1a334d83302a76aU,
  0xd821160acad71f0aU, 0xcb4f98c405d53e14U, 0x3dd3c051649deed2U, 0x13e0305513acc4eeU,
  0x102c4ea7b1dd2e03U, 0x3ae9b2bcc740c4fcU, 0x6d61d0e60f7feac8U, 0xcf2def4efd9bde39U,
  0x9dc2d6d64e7cb507U, 0xff108185c7e16007U, 0x8f053e9eb5e57d5cU, 0xc99a41e2aec9c937U,
  0xefb14bf941bec1ccU, 0xe5fd49e6ecb37044U, 0x4929967444ae7468U, 0xb0cac5a72c796ce3U,
  0xa9ad83fbff0d5ecfU, 0x86e31a3481e33fcaU, 0xb0ec05fb053f16aaU, 0xd0b001f8aa338df4U,
  0x9fbd1c3a8895aed8U, 0x37e4e9e2e1ad5471U, 0xf9e0e63abee01d5fU, 0x94937668bfc6a339U,
  0xedb853d6d66465b3U, 0x51e616a561788d8U, 0xf0013db1c10cb62cU, 0xd1c0ddc63cb62972U,
  0xa599227d96c51cc1U, 0x38997655bff64eaeU, 0x2bf742cc14f1f80fU, 0x509bb6bd2143fd32U,
  0xaa19c9594b33fe9fU, 0xd722ed689096f6edU, 0x9565959b0420b88bU, 0x70049e11c1dec277U,
  0x57783735bd98dcf1U, 0x1a100e0dec0cb815U, 0x9368730ad86e474aU, 0x50d9b189d33479fcU,
  0xcc520146c987d2d5U, 0xa247f2e0a601fad2U, 0xce1f4a042e8d9158U, 0x7e673cef8db7e738U,
  0xcbb72be3d51e2249U, 0x116099ec7a51a1aaU, 0xd9e4a15e415a772U, 0x3ead7785e36c5e4dU,
  0xbf2c1412bcf0b5dU, 0xf324611e0e5afc4dU, 0xcd3d47682d6ce1cbU, 0xf218d0d14cb527f8U,
  0x2847a57cc6dab475U, 0x1525f64eaacda643U, 0xfd42522c483413dcU, 0xebe4ea0949530f49U,
  0x57ed31013a28cec3U, 0xb756cd2e4fc7d237U, 0x2f3e78f3c52ee435U, 0xc9ce021a22e7e49fU,
  0x3bd61e4169ad3b53U, 0x55c5f32632d2bd27U, 0x4559e249399ee49dU, 0x5acc0d3843cc6201U,
  0x559bb64b50d791c2U, 0xdfe574ef59ffe451U, 0xc0d7fc162801ca2aU, 0x7aeabf81cbf1eabcU,
  0x3ab5a6ff57e242beU, 0x4063ef369fc7fbb0U, 0x16ff108ca426bccaU, 0x6d73d30261f97e56U,
  0xcaf7c0ee44f3edd5U, 0x20fd145cfc6824dbU, 0x34d6d65786b053b5U, 0xd431400e676fd71dU,
  0xf950e2d849993b06U, 0xf536f5a4b5611c01U, 0x7bde628aad4a5d2U, 0x4ef7fa335d1a2d45U,
  0x57ac008d40cec4a9U, 0x166559165a14f837U, 0xbc9daba51b8cd65U, 0x3e29ecc5abe8be50U,
  0x1d55d31ab2e7d7b8U, 0xa31f3a2924263febU, 0xadbf717ab19ecd3U, 0x3139601ec96e065eU,
  0x3f01ccbef22bc540U, 0x114a3d73e961c91fU, 0xc04607d1ddd207c7U, 0x2365292c0ee81538U,
  0xea463e6c0af31425U, 0xc026e724ae0c97efU, 0x4b523cd7d101bcc0U, 0xfe442e2604e8fa02U,
  0x322bfed807264a1eU, 0xac0d8720028f45eU, 0x1657080bcf1c2831U, 0x26384920f4211ca2U,
  0x20dcf1317be26c26U, 0xc920d2f4d120ecefU, 0xc8fa48c91a2706ccU, 0x227a1205d4cd1a4cU,
  0xdb0ba591fb6ab90eU, 0xadf637fc40dd4f4bU, 0x2b67d3cc19a9e773U, 0x4d22415b3b1e4c3eU,
  0xee47c6f760395372U, 0xca61f6a3affcf9f7U, 0xe84103c425db6bf4U, 0x2cdcf0e1204064d4U,
  0xfc1d11fddbdfcb49U, 0xf3ce1b5f1ee362d0U, 0xc8ca2c4ef4a65f66U, 0x15792c5becf7eb23U,
  0xffdfe6e5454a106bU, 0xb33d740ebbedd3deU, 0xcaeb6d3d3000ee27U, 0x37fd3cce32733e1U,
  0x22241fb0f8d70aeaU, 0xa6e32077e02ce060U, 0xd3ef53183329f1e5U, 0xe30a1ecdd2dec6c6U,
  0x43ca3c1e35dbd4ffU, 0xf50e4b4ffce7b13cU, 0x214905bb9f482a5aU, 0x27bf91d3e0de93dU,
  0x319b23d94acea225U, 0x44661302afead44U, 0xd112017746ca610eU, 0x49f82b51b01761eeU,
  0xc72907411fc4c2beU, 0xf0d26d51240c29daU, 0x16ae75b8a3c0c9e3U, 0x673c61f3c5591d45U,
  0x38e8eb1e3dfc9e10U, 0xe2c03030604a586dU, 0xe00dcf6029394222U, 0x1ae5aa515e316934U,
  0x1ec3b9ed59cbd3f9U, 0xcc3e752ab737e223U, 0x56e7bcf71e0b3e99U, 0xfa2dc312ba787908U,
  0x1ed0c4ff4224d6b4U, 0xd31dd30b5a264cd0U, 0xf770f1601c33f171U, 0x555201cf676b912U,
  0x51b9bb57e7fb2ac5U, 0x274ff6bff4b1be19U, 0xd098f60133c1fdf8U, 0x1ef02073c9d95308U,
  0x3f08ef12daffb55bU, 0x91be71541779d61cU, 0xf83335115d255ae7U, 0x2b3915d00a0f69d1U,
  0x3375a0361b3cef52U, 0x593e6ea4e36ce36cU, 0xf107312531e258bcU, 0x3b02c262c2c9ef1bU,
  0xb326c0151c68f4ccU, 0xed544ced577ffe00U, 0xc3495158a0dd08fdU, 0x6dfeb334d2135d2U,
  0xd8442ce54e2e0170U, 0xb2c1453de51b565cU, 0xfd0219eda1d461bdU, 0x3335f59bac43bceU,
  0xc2339e45f0d6de6U, 0x2b0b33584ad050d0U, 0x6ba467bcc01a5646U, 0xca2844aa023e97afU,
  0xad4fc1cc280a49a8U, 0x5ea9f63ef6d6d90cU, 0x471b5cd219b33231U, 0x6c11edaf410f0262U,
  0xe8c813a86cb1205cU, 0xd4c2c004eac3244eU, 0xee8f46047b44d92aU, 0x60daf8cf0f6b2019U,
  0x8f5e42347709d2d3U, 0x1f150404caee204aU, 0xdc1429ac2f2f5fa5U, 0xb61701211d265658U,
  0x5ed905becfe429feU, 0x43c4d73b2436a124U, 0xcdaa182247245519U, 0x411902c465b49cdcU,
  0xc3325d6df3b8560aU, 0x3b3a67ffb3e8236fU, 0xe72d2479540e0441U, 0x1dad2dd639c6d824U,
  0xd8386155073dc4b5U, 0xfd18bcf8775cd1f7U, 0x5adf0cfbd3d9b1c0U, 0x5133316eeb3d0e0dU,
  0xff55d7db6521e5ceU, 0xb92bfef6a90ca545U, 0xc541d70536ded1f4U, 0xd6300568f81b014fU,
  0x63c4a00469c9772bU, 0xcd0aca5a2f5f14f8U, 0x1606d12a47d46b64U, 0x92e6ad1147bdc55fU,
  0x17ffee567d0afa6U, 0xa9f50fca2b6c5bc5U, 0xd9486733c5635ae8U, 0xfcbec0a5abe55143U,
  0x6ef31f7097b11c7U, 0x3db9a4e417cc4b45U, 0x4c34e9c69e5fdb45U, 0xc92b5d1fecf4c19fU,
  0x515f3668da27481bU, 0x75a18ae17e930c1U, 0xc446194c0dac1944U, 0x1351cfc2e5276366U,
  0x1fc11809ef6736e5U, 0xf5e700cdca4f13c1U, 0xfd2a70bba3173d2fU, 0xdd07636905d446feU,
  0x33abcfbeb1c24c65U, 0x98d4d3495910a4c7U, 0xedd045ba9726e72aU, 0xe036ca12e0c2c7ecU,
  0xd01d07cbce64f5f0U, 0x46bbe942c7ea122eU, 0xff46ef35c05c298cU, 0x43ce1753b2f60615U,
  0xdee79564c02fc541U, 0x9c385cd802a1d2c1U, 0x2ca2ee36a9cf4b1eU, 0xf5ebe835e3963fe4U,
  0xc800c34a1cf89e3eU, 0x1fa803cc32180194U, 0x6510462d0921f4ddU, 0x66193623e5ff53feU,
  0x7fc3372a4c364d47U, 0x3958f0d60548f621U, 0xd02528ad3ae0b2c7U, 0x3f11f5c8bcd54c59U,
  0x47c86933f6d421d3U, 0xa0ad4e5ca23fc0fcU, 0x3368ff50bfc48f22U, 0x7a263552b366b814U,
  0x7cae453899f0450eU, 0xce4ce6a06e18380aU, 0xc7bdcde2ffdfb2cbU, 0xe9c8b7d9a292dc57U,
  0x3ddb137c152d1a2fU, 0x66d1e22336ad07e2U, 0xe9c1c3ce6baa2121U, 0x8c6006f139275fc3U,
  0x2826e9592cc0e7c7U, 0x1b00250ee26351eeU, 0x12c82ee9020d47b4U, 0x3391951ec4315c5U,
  0x3513190325f15cb4U, 0xffbbea3035d550e1U, 0x2a4cdc39e716dcefU, 0xa83d2a6e6e4f0fb8U,
  0xa01668a9b449c60dU, 0x35eb18d4c70921d9U, 0x2d1238cc13f76344U, 0xcde032db34330c2eU,
  0x2ccdd953f5e22bb8U, 0xac1373dd00b2c2aU, 0x60facc432bcc1934U, 0x980d1f433b09c113U,
  0xb9e414413f47581bU, 0x1aa30252e2f4855U, 0xd7915530454f26dU, 0x280bf7c0fd5d1e02U,
  0xa66fd6f6c105ef3bU, 0x16dd1de315410a10U, 0x3bcee8d1c0163325U, 0xd8f743d805b4e105U,
  0xcf133cebb90ad130U, 0xf2fa443a1159052cU, 0xdfcebfe072e4da43U, 0xcdbc672150e52be5U,
  0xcf7f606832b0e2d3U, 0x3ee461ffc2ea5c09U, 0x3decb92743c4cfe2U, 0xc8ac6cfd06efcd42U,
  0xd2c8f4b615690047U, 0x2eae284b6c4000eeU, 0xc607c302525a1df3U, 0xcbaadceed156bd46U,
  0xb4c9da1d37ad0ba7U, 0x4813eff9f0234aafU, 0x50082b4bb1cccac9U, 0x1597233d070762f5U,
  0xb406642b44ef17b9U, 0x17a1d6e1082735cbU, 0xcb1a5325fe4aedcaU, 0x35baa6041b351442U,
  0xe62a40bfe6202d34U, 0x2c733281342dd5b9U, 0xa410cc17aaadf8e2U, 0x222707512d03e962U,
  0xb5bdc8349f24b4d4U, 0xa83d00b2c114daacU, 0x6a2ce949686f4deeU, 0x9e42fa4be6acafc6U,
  0x467b3763f7b3f4d5U, 0x67ebfddef7f5364dU, 0xe848f94d022aa858U, 0xb74cea54a22d0941U,
  0xcbace332c529a5e2U, 0xa2b8d8b32104222bU, 0x3ae4f612193817d1U, 0xe223b3aef1cbeed4U,
  0x475def490ee3f259U, 0x6406b4c943f7ec49U, 0x41ed1a0c2203d0a1U, 0xf0120058ee3bb16eU,
  0x119b67d0d4e7e1d9U, 0x628cdb1dc4626a1U, 0x4f502cd863f0b44aU, 0x4a22f703bc050e55U,
  0xe11f005ccd0ce2f7U, 0xff560ef808dc1fdcU, 0xd2d9da5a42059c2cU, 0x57d93bf3e44e201aU,
  0x1a3fb5beebe4e16dU, 0xd39132f07a742f9U, 0x395065294b271ff6U, 0xbae82d5329c000b9U,
  0x354c179009edc204U, 0x9a4e2ed7c67e38c0U, 0xcfc9062af128ba37U, 0x6b693ce19c66610cU,
  0x57f7bf1f26e8d344U, 0x68d02ea4d3f00315U, 0x489e4a0da7182b2aU, 0x226206b9194c7befU,
  0x3fac8a711b01e2eU, 0x1a61fdac02c8c978U, 0x33fc58bf50f94639U, 0x6faec5a9f629b234U,
  0xfc14c42f5b38256fU, 0xf0e142b992145dcbU, 0xec0038302b4bf8d7U, 0x13c3dc5d683043f2U,
  0xd0bfa2a3c7750039U, 0xf0d04f14670df031U, 0x3a26d1d70d297042U, 0xe65d9e81e6f9cc2dU,
  0x75a79eed434ef242U, 0xd271eee2e1c425daU, 0x2d976a40e341f3e4U, 0x21670dc60a6f6f43U,
  0x2e85bb94a9200dadU, 0x2ff3500c352f6e30U, 0x229cd4b2eb7d015U, 0xecb71bfb50695967U,
  0xf3a095ccdec44e59U, 0x54e14d1f9e23abfU, 0xd7d52fcca614dd0dU, 0x2721c0c73ae06d4aU,
  0xefaf1421494434dcU, 0x9c2658660d2ca55cU, 0xee5712542240d763U, 0x5f2855f3d64198c5U,
  0x27e042e43ead6f7dU, 0x27750d32cbee4ee8U, 0xa1ce65abe0a4c271U, 0x7409a85ffec6594dU,
  0x6a4fa5b0abd1e5d9U, 0xe687b900c0328fc1U, 0x574dfae1953ecdb9U, 0xcd0ab619b8a2a48aU,
  0xc1b9ca39df1a6098U, 0x3821f640f3aa5deeU, 0xcc35f833366656b1U, 0xe84fc5a39427afc6U,
  0xe1afc30a46c7ed4dU, 0x9b58a65329a36895U, 0x38bd27bc715f87e2U, 0x46dbebe1c5632c0aU,
  0x83f9281e87d322aeU, 0x27443deb9b8e44bcU, 0xf2c64bcef6a85e51U, 0x7162c02f0c245413U,
  0x4774e6e7d40d8999U, 0x1f9eea3d81ea3412U, 0x9fa3132ddec611bdU, 0xa85ae285e53d4657U,
  0x9d3567cf1cf48101U, 0x180da1d756ce4810U, 0x1d5e9853203a6391U, 0x210efab0f5fa0126U,
  0xbeef2f6dfb12b655U, 0xad20d54b1f4ba8f2U, 0x93a9a7b300d124acU, 0x63eda81a00c1e022U,
  0x99d62a0ee2ab45dfU, 0xa2c54257c286a040U, 0x954f0c183aa13eaeU, 0x358d0ea6e1960911U,
  0xc6c188c0da8fc125U, 0x1b6563e88fcf8e2U, 0xa5db073f6d924dc2U, 0x5ec8a4918e04ce1eU,
  0xc1cdb71e99c616aeU, 0x1d99cadc99f808c8U, 0x6b39162708c8ccbeU, 0xd56b4c4f9c64c5d9U,
  0xe82833410e0bfa99U, 0x1d2c9fc20a3b43d5U, 0x345319563921f935U, 0xdfd53369292e6116U,
  0x13554e5ef173a3a0U, 0x27c034c0c56e45f5U, 0xc4d23d53f3b5015U, 0x22a0b5c31901ad7eU,
  0xd41830cba9f87a29U, 0xd437eb26a72cfaf2U, 0x3dd63d3a5e36bc24U, 0xa8cf3e7c7d1545f3U,
  0xb9627fcf161ab331U, 0x4604f933f7ddecbeU, 0xe353333d0a2b4d71U, 0x4b14f109a1f12a3fU,
  0xc97f24344da400c6U, 0x5d33ec14d1065ecdU, 0x3ed7460acbe460abU, 0xab515c44c31072ceU,
  0xa1e549de3df4129cU, 0x16ed2ddb08c373b7U, 0x4709f45c2327da5cU, 0x1d555ade444e3e38U,
  0x241a52465f35c5b0U, 0x424ee99dfccaf7edU, 0x4c48e6dc5b2cfe3cU, 0xcb3b325d3e4d361aU,
  0xca281dfcab76b146U, 0x31f2e91d5afc280dU, 0xfee5194b5542e8eeU, 0x21052d4395b5897bU,
  0x1dc06c2937a944d1U, 0xd4efe317f6344f13U, 0xb6395194e3eb2f6U, 0x3ee42b251abe0ee2U,
  0xec4b2d492879fbe4U, 0xd31bf0c9cc6dded6U, 0x1a18196af6ebca49U, 0xe4df16641300d73cU,
  0x693eef395ff54fd4U, 0x6863f596282817bdU, 0x561032001446d2e0U, 0x39262641ee21afdcU,
  0x86215515bd17a008U, 0x50d3f344204f3fd4U, 0x5042df1b0c7728d8U, 0xe813094cb73a19e7U,
  0x10ed40c05d35bb1U, 0xd8bc3da85844e814U, 0xf31903ae63deeaaU, 0xb8b7df7d28ccb252U,
  0x1d0950ba14203348U, 0x1aa658f0b3e1005eU, 0xed6ef24e5ee2d2d1U, 0xd2e3a8e1bf4013ffU,
  0xdd076814e09d35cdU, 0x6152fa33519bce30U, 0x78c78c372a38c064U, 0xd6d05b71ebfe1ab2U,
  0xe6e6404a273e1f45U, 0xa5d8eab1f83677c3U, 0xf3133d1353ff59b8U, 0xafc255cbede2a2ddU,
  0xe9f0b3cc44b6e53bU, 0x4cd9d3143e9ece54U, 0xc30ded23f19e320aU, 0xba0e6b7d2afe63c4U,
  0x5fc66e113691431U, 0x1ae3dc0624e856edU, 0x4558cc60e7bbf7fbU, 0xc5f118233a3bfa6aU,
  0xa3786ee53e3a7ed5U, 0x5821349ac7d80152U, 0x201c411c58b023beU, 0x85d62e7f7157296dU,
  0xa91775403371e72cU, 0xcd081549185f635cU, 0x3f34c0ef16795d1fU, 0xaf9b6239b90c981eU,
  0xb7244f57e0fd04c0U, 0x2204eacb4179e94fU, 0x51e406a1c0c4096U, 0xed180857fe1809e8U,
  0x7141e312ea225043U, 0xfae24560f1c63eb8U, 0x1bb214f298f526e5U, 0xa802e965c1e70463U,
  0x55e7ff46233c3a34U, 0xfe16c3501ac9e23cU, 0xdd74532fdf34bb1bU, 0x5e38c83026bdedfcU,
  0xdc091706d3e86154U, 0xc14a121b16e6c50cU, 0xdbd143be9cdffcebU, 0xc8460969dbb75cdaU,
  0x68d6e4c350d31bc9U, 0xfe9a291b2fe8d81eU, 0x593f3909ae3901f2U, 0x2bf5e5642e07e8c9U,
  0xcf2c3de63e65e9f9U, 0x34ec4f1e7e25edd8U, 0xf098e2fea104fb28U, 0xfdcf0807d3ad27c8U,
  0x540834f92a660dd8U, 0x5bf1a37e652f58f7U, 0xc21059b8e243c68bU, 0x1c52e24fd65e3501U,
  0xfdd7355c41380541U, 0x4e465ae7ec04b639U, 0x2947efbeb43db2dfU, 0xac17e0e8b8c16ec2U,
  0x69908ca17486251U, 0x503d14fd2f421ca1U, 0x7e3043feaf43f2bU, 0x25181820f3435c0eU,
  0x7ec332ca1ad6efdbU, 0xae070c4e7f583dc6U, 0xd446fbbda398fac6U, 0x9cc1360ac4efe5c3U,
  0x4e985c5b6ace2b2eU, 0xf7aa2a69e66df01bU, 0x694ad6e0a6fcb18dU, 0x28e06dfecf16e519U,
  0xd14114fb2c5adf2bU, 0xb8bd330c2c5aba5aU, 0xbeec573b919c94b5U, 0xd2f864f707cf75e7U,
  0x39dc0e544d08ae2cU, 0xabcfcf052a04e1c6U, 0x8321d441b66fc9dU, 0x2f694acedb5e13f8U,
  0xe65c3e161c1b65f3U, 0xe322594f6659aeb7U, 0xee45d808aeaabad0U, 0xb27a5ef9813add6aU,
  0xbae41c46054b37fdU, 0xcfc3af562be1011eU, 0xc542e166df00c782U, 0x685a3c2b6f11e3baU,
  0xf467f7b4153728fbU, 0xbfc80ead164a6af7U, 0x43a75dd3af160bb2U, 0xb1de59f31e28fefaU,
  0x4ab08b06950f026U, 0x57a5ee30181d1ec0U, 0x536f27bcf8bec2daU, 0xe74bc0421964fadcU,
  0x5a28be17e81aec34U, 0xe660ca0743f5afddU, 0xf1905d2cd1b207bcU, 0x1efee2642c35332U,
  0x50b76ec23677f91fU, 0xe6afb7e2d07312ceU, 0x410323f7a6fa7092U, 0xdc1e50bf1e0de2c1U,
  0x71d6f31057f64ec5U, 0xb3bb5de922b55e28U, 0x4ab4ed08a2929aecU, 0xd21a5d0a40507372U,
  0xeb49ede666514704U, 0x2b5a5dca2efe329U, 0x2fff3feef85ac042U, 0xca05791222e6dff8U,
  0xedaa30e98c65c800U, 0xe2c90159532b48e9U, 0x4b355f53603e949U, 0xf1bcb20fd8904e1U,
  0xbcce2b7106215cfbU, 0xd79de54b4b1246bdU, 0x7460193011f8f22aU, 0xbdd21f0dd1b9c166U,
  0x660eb2b99e496ce4U, 0x1fc9393762ade997U, 0x53a83fd21cdad9a0U, 0xe6053341ddcb445cU,
  0xbfec1532e26ffa12U, 0x6e9532249d2b13b3U, 0x59191e3ceefcc5efU, 0xb24ce026fed96d2fU,
  0xe90fb8e747521ca8U, 0xfe02bca81f43cfe8U, 0xf5ebfcfad49e21a1U, 0xe2153324c4d22913U,
  0x2c006836751c6d25U, 0x524d1aef3a38719dU, 0x38e5cae43907a531U, 0x4d0935d7f86f0fafU,
  0xd935c92603086c06U, 0x265ac9d31beb21acU, 0xb13ad8f6e703fc9bU, 0xb8f86c40dbad5fd6U,
  0x4b4162cfe83508f8U, 0xda06ab7f02adbfdcU, 0x6bff2e5b39ae25dcU, 0xa3fd6e237be25beU,
  0xddd9b5bea2d105bdU, 0xa7f030e27beb0435U, 0xafa9c9a0f91f44a2U, 0x9ec3d03fbe9d326aU,
  0xeb3b66286b3c2e0fU, 0xd935970608da3cd8U, 0x7366391b2923d9b4U, 0x3aab2860a005c56bU,
  0xd536ed13c135ed0dU, 0x22fd6053343bb04eU, 0xf13836c26f65dfc0U, 0xc1bc12f206a943d6U,
  0x3dd13fd44eb4b24fU, 0x374df83531a6f2a5U, 0x7182ae6295030e4U, 0xb9be3ae6b0464737U,
  0xb56120111c695ef3U, 0xa501c1067ab8fc3eU, 0xc863f3bbe64dbec8U, 0xb210cc590fc655aaU,
  0xa7c6be436bcf664U, 0x12b2ae03a7c67821U, 0x6c6b04c9c7e418c0U, 0xd16616015c39c170U,
  0xfba429b8df5050c6U, 0xe23c65fd1ccf59d7U, 0x98a20c9d0bcbe532U, 0x9a31b6517e1ca25U,
  0xf2fe2db4911b5e0U, 0x21b81eea259dad7U, 0xdab13c3d0bb7fc91U, 0x553f260da6cbfac8U,
  0x635eb28fabb56b06U, 0x252011d94ff700ddU, 0x48030dded7f3b6b7U, 0x711543324310aa7U,
  0xb81468d3570d1c13U, 0x5bbeb75b8ec41fb8U, 0xf2d84d500f1caed5U, 0x78f0175b52eab223U,
  0x5625afa6f4330b75U, 0xc9b16cd2b45caa8cU, 0x50fb131864f0d0fcU, 0x9edd5c528e41c35eU,
  0xd80825c0cb014331U, 0x854db8f9fc691abbU, 0x1aa034fedacde941U, 0x56b5b942e3170a2eU,
  0xabeb155cab99aa60U, 0x4e5f8b6a9464a7d1U, 0x9d1cb7859f481c1dU, 0x54af16e5433d48d3U,
  0x2f4f5bc4e94d273eU, 0x4de90287a9068521U, 0x42bba8fbbcd1aad5U, 0xb3c954b1da07112dU,
  0xb9c938960e1c555eU, 0x329d84266403ed95U, 0xb3d3544cb329dfc6U, 0x698a2326e533ab3bU,
  0xc6ea88c4dc4d470cU, 0x8b06bc3d4b424b4aU, 0xa64ad0353ef0a20eU, 0x13119a81e3c8ec24U,
  0x5a2e9f391329af60U, 0xc0c8a72d4e35dc3eU, 0x4a1e016432ed0d66U, 0x25f4e48624bc63e5U,
  0x4af75c23fa0a2e9bU, 0xb238e4e61ad7d84bU, 0x239b50a4ec2c6426U, 0x89a5905b5499858cU,
  0xd1ecdb050b6add06U, 0x8b8650a183f19431U, 0x1c265a9e1d4e973fU, 0x18dc533cafd36017U,
  0x353507f3dec09792U, 0xbac397e7c9931ec9U, 0x2c9a0c5490cd1c28U, 0x2c06aabfba40b3b5U,
  0xfc5f2efce95fcf48U, 0x22dada87bcc829b0U, 0x97e73e198a43f4feU, 0xb4953eccd74505c0U,
  0xfffff9b3fffff962U, 0x99b00000687U, 0x8b7fffffac6U, 0xfffffcf3fffff858U,
  0xfffffa4f00000015U, 0xfffffd26fffffdcdU, 0xfffff899000007cdU, 0x27cfffffde9U,
  0x6f8000006feU, 0xfffffd30fffffe26U, 0x917000005b9U, 0xfffffe09fffffb3aU,
  0xfffffda6fffffdbfU, 0x771fffffb02U, 0xfffff6fbfffff9e6U, 0xfffffda2fffffbc4U,
  0x3850000010fU, 0xfffffdedfffffd7cU, 0x7cdfffffb2dU, 0x61bfffffe49U,
  0x234000005f6U, 0xfffffbf6000002deU, 0xfbfffff8e5U, 0x26eU,
  0x37900000111U, 0x7d700000579U, 0x7270000003bU, 0xfffff8bffffff8dcU,
  0x68efffffd27U, 0x77800000794U, 0x4d0000006f8U, 0xfffffd64fffffda1U,
  0xa664f52d93f3f530U, 0x573e110531032752U, 0xceafb8d5c4ec5d21U, 0x4b345d5df5338dacU,
  0x471cf35ebd8e5621U, 0x5c5bae55f5f908a8U, 0xe6bfcb7cb0276d7bU, 0x66443d6d7481f7a0U,
  0x200babf4a25c657fU, 0xcf9406aa7c872ae8U, 0xcc1cddc6e337002dU, 0xbcc4692e6348781fU,
  0x7466ce52a6f5d6cbU, 0xd9058659d9a67ff6U, 0x466640932d88f93U, 0xa56f17c6e9f57eaaU,
  0x43434f1faf4af40cU, 0x4bde24b21def9e30U, 0xdf8155d123b6fe70U, 0x423d4236bb65ab32U,
  0xf3f75cdb9c361a1fU, 0x212aaf53d30e4b9fU, 0xb3dca63d3cfb0b55U, 0xe3a55e323aac411bU,
  0xad47ea218cb34f16U, 0x5373c05d965aafaeU, 0xe04a7a66956db63U, 0x4fa595064642a65U,
  0x9e0d0bac7aff3f87U, 0xa6b8442c1d07a79fU, 0x6e00fc614de7b6d5U, 0x7ff9c747acd663caU,
  0x6edb4b4f5e7f9e16U, 0x332fd708b247f327U, 0xb9c8eccf670c2f41U, 0x1605281bb93a9756U,
  0xdfe8c0009b46de53U, 0x12f656a343bcee59U, 0x5db1ecc33f2431b8U, 0xc99cddfda496c23dU,
  0xef451fe29c43a123U, 0x55caff0314215d26U, 0xda58ec19d456c138U, 0x955e1d4153ed595bU,
  0x60fbe147b43b93ceU, 0xed5623c150a56bcdU, 0xe2f18715021fc36U, 0x3f737ecbe681bb97U,
  0x5a24ab81a2872754U, 0x28fefa0303d1f39bU, 0xdb9c05247941ad9eU, 0x17b258e0f76e7a7bU,
  0x6369144ed9b1d633U, 0x60320c3e44748682U, 0x9b2781a05a9abfd3U, 0xba4995b9f784d00bU,
  0x49231e2fda91ca0aU, 0x2be1f20aad00c154U, 0x49200dc3a10e90b5U, 0x273c19985656b7f0U,
  0x67b130b225bf8c66U, 0x580df4c97f335ecbU, 0xde3a69efd910de5bU, 0xe07aeac3e11259bU,
  0x2923efd4a3f25b92U, 0x34085b53709de654U, 0x3872cf23f3111f39U, 0xf629b08152b167b2U,
  0x42b601b66995b41bU, 0x2ce1ce3ebd89d53aU, 0x846cd5cf3254a0c2U, 0x42b5a8b64af02146U,
  0x1d30a0cc60c1e2cfU, 0xb2a0a2634b4036e5U, 0x137fe5f3d932ad99U, 0x3b99225734f003a2U,
  0xd513401efedf27U, 0x5621053578b9dba2U, 0x4531b9acf5476be0U, 0xd95036a31fe643edU,
  0x3aa705cff5b2a0ccU, 0x741dc3f0bf5e2817U, 0xa1ebc9b0730a057U, 0xc59ae6cdc0f19f5bU,
